node {
  name: "global_step/Initializer/zeros"
  op: "Const"
  attr {
    key: "_class"
    value {
      list {
        s: "loc:@global_step"
      }
    }
  }
  attr {
    key: "_output_shapes"
    value {
      list {
        shape {
        }
      }
    }
  }
  attr {
    key: "dtype"
    value {
      type: DT_INT64
    }
  }
  attr {
    key: "value"
    value {
      tensor {
        dtype: DT_INT64
        tensor_shape {
        }
        int64_val: 0
      }
    }
  }
}
node {
  name: "global_step"
  op: "VariableV2"
  attr {
    key: "_class"
    value {
      list {
        s: "loc:@global_step"
      }
    }
  }
  attr {
    key: "_output_shapes"
    value {
      list {
        shape {
        }
      }
    }
  }
  attr {
    key: "container"
    value {
      s: ""
    }
  }
  attr {
    key: "dtype"
    value {
      type: DT_INT64
    }
  }
  attr {
    key: "shape"
    value {
      shape {
      }
    }
  }
  attr {
    key: "shared_name"
    value {
      s: ""
    }
  }
}
node {
  name: "global_step/Assign"
  op: "Assign"
  input: "global_step"
  input: "global_step/Initializer/zeros"
  attr {
    key: "T"
    value {
      type: DT_INT64
    }
  }
  attr {
    key: "_class"
    value {
      list {
        s: "loc:@global_step"
      }
    }
  }
  attr {
    key: "_output_shapes"
    value {
      list {
        shape {
        }
      }
    }
  }
  attr {
    key: "use_locking"
    value {
      b: true
    }
  }
  attr {
    key: "validate_shape"
    value {
      b: true
    }
  }
}
node {
  name: "global_step/read"
  op: "Identity"
  input: "global_step"
  attr {
    key: "T"
    value {
      type: DT_INT64
    }
  }
  attr {
    key: "_class"
    value {
      list {
        s: "loc:@global_step"
      }
    }
  }
  attr {
    key: "_output_shapes"
    value {
      list {
        shape {
        }
      }
    }
  }
}
node {
  name: "IsVariableInitialized"
  op: "IsVariableInitialized"
  input: "global_step"
  attr {
    key: "_class"
    value {
      list {
        s: "loc:@global_step"
      }
    }
  }
  attr {
    key: "_output_shapes"
    value {
      list {
        shape {
        }
      }
    }
  }
  attr {
    key: "dtype"
    value {
      type: DT_INT64
    }
  }
}
node {
  name: "cond/Switch"
  op: "Switch"
  input: "IsVariableInitialized"
  input: "IsVariableInitialized"
  attr {
    key: "T"
    value {
      type: DT_BOOL
    }
  }
  attr {
    key: "_output_shapes"
    value {
      list {
        shape {
        }
        shape {
        }
      }
    }
  }
}
node {
  name: "cond/switch_t"
  op: "Identity"
  input: "cond/Switch:1"
  attr {
    key: "T"
    value {
      type: DT_BOOL
    }
  }
  attr {
    key: "_output_shapes"
    value {
      list {
        shape {
        }
      }
    }
  }
}
node {
  name: "cond/switch_f"
  op: "Identity"
  input: "cond/Switch"
  attr {
    key: "T"
    value {
      type: DT_BOOL
    }
  }
  attr {
    key: "_output_shapes"
    value {
      list {
        shape {
        }
      }
    }
  }
}
node {
  name: "cond/pred_id"
  op: "Identity"
  input: "IsVariableInitialized"
  attr {
    key: "T"
    value {
      type: DT_BOOL
    }
  }
  attr {
    key: "_output_shapes"
    value {
      list {
        shape {
        }
      }
    }
  }
}
node {
  name: "cond/read/Switch"
  op: "RefSwitch"
  input: "global_step"
  input: "cond/pred_id"
  attr {
    key: "T"
    value {
      type: DT_INT64
    }
  }
  attr {
    key: "_class"
    value {
      list {
        s: "loc:@global_step"
      }
    }
  }
  attr {
    key: "_output_shapes"
    value {
      list {
        shape {
        }
        shape {
        }
      }
    }
  }
}
node {
  name: "cond/read"
  op: "Identity"
  input: "cond/read/Switch:1"
  attr {
    key: "T"
    value {
      type: DT_INT64
    }
  }
  attr {
    key: "_output_shapes"
    value {
      list {
        shape {
        }
      }
    }
  }
}
node {
  name: "cond/Switch_1"
  op: "Switch"
  input: "global_step/Initializer/zeros"
  input: "cond/pred_id"
  attr {
    key: "T"
    value {
      type: DT_INT64
    }
  }
  attr {
    key: "_class"
    value {
      list {
        s: "loc:@global_step"
      }
    }
  }
  attr {
    key: "_output_shapes"
    value {
      list {
        shape {
        }
        shape {
        }
      }
    }
  }
}
node {
  name: "cond/Merge"
  op: "Merge"
  input: "cond/Switch_1"
  input: "cond/read"
  attr {
    key: "N"
    value {
      i: 2
    }
  }
  attr {
    key: "T"
    value {
      type: DT_INT64
    }
  }
  attr {
    key: "_output_shapes"
    value {
      list {
        shape {
        }
        shape {
        }
      }
    }
  }
}
node {
  name: "add/y"
  op: "Const"
  attr {
    key: "_output_shapes"
    value {
      list {
        shape {
        }
      }
    }
  }
  attr {
    key: "dtype"
    value {
      type: DT_INT64
    }
  }
  attr {
    key: "value"
    value {
      tensor {
        dtype: DT_INT64
        tensor_shape {
        }
        int64_val: 0
      }
    }
  }
}
node {
  name: "add"
  op: "Add"
  input: "cond/Merge"
  input: "add/y"
  attr {
    key: "T"
    value {
      type: DT_INT64
    }
  }
  attr {
    key: "_output_shapes"
    value {
      list {
        shape {
        }
      }
    }
  }
}
node {
  name: "Const"
  op: "Const"
  device: "/device:CPU:0"
  attr {
    key: "_output_shapes"
    value {
      list {
        shape {
          dim {
            size: 39
          }
        }
      }
    }
  }
  attr {
    key: "dtype"
    value {
      type: DT_DOUBLE
    }
  }
  attr {
    key: "value"
    value {
      tensor {
        dtype: DT_DOUBLE
        tensor_shape {
          dim {
            size: 39
          }
        }
        tensor_content: "\277\241\003\235|\356\265?&\255i0\377w\252?\030\334\376G\336]\255?\310\343R6Es\256?\243\225\335&\243\364\256?\275?\305\016\203j\266?&\314K6\314j\263?\020zB#W\311\260?\021\203l\024H\267\263?~}\203\002l\006\270?\352\231\334\305\277\224\254?3\267\177\226R?\260?\021\204\255n\366~\301?\212W)\355\367\306\260?*h\312\256mF\255?a\227\216bk\362\246?v\010g\260\305\246\256?\\\326\366\241\313\036\247?$:}\004\020\366\250?\0347T\344\313\366\262?D#\010\206=\247\261?\001\022\023\010\006y\261?\320.g\234\326\242\260?\0373\035?\254\360\257?\345\272\230G3;\273?\275\257\000\325S\361\247?\354;(-\376\266\250?\370@\026-\324\202\261?\321\367\220A\005\013\264?\3244\006\002^\276\260?\252=\207\346\263_\273?\367\320q\035\343h\262?.\3657\307r\353\260?!x\235f\031\274\262?\3222\367\256\001\254\262?\221\276m\351\326\231\256?P\273\263+d\026\276?\305\312\013\007\211\374\260?nX\035\226\177\220\260?"
      }
    }
  }
}
node {
  name: "Const_1"
  op: "Const"
  device: "/device:CPU:0"
  attr {
    key: "_output_shapes"
    value {
      list {
        shape {
          dim {
            size: 39
          }
        }
      }
    }
  }
  attr {
    key: "dtype"
    value {
      type: DT_DOUBLE
    }
  }
  attr {
    key: "value"
    value {
      tensor {
        dtype: DT_DOUBLE
        tensor_shape {
          dim {
            size: 39
          }
        }
        tensor_content: "\030\255\225/\177\360\000@\214:g=\246\271\n@\210R\352b\312\244\010@\0207l\261~O\010@\346!CN\367Q\007@\312\036]\272 \'\377?\030\225&\027\320m\004@D\344H\304\037D\005@8\266\324{\2429\002@\226G\303\304|<\002@\264\334\226vX)\010@!A\235\267$5\010@\211\306\003u\214%\362?\005\363#\033l[\007@L\004\035\252E\214\t@\377\216\235\\\036\251\010@\301\007\331\266\264T\004@\007A\223>\256\232\007@wE\310\244\\\242\006@x\204\273\341\2340\006@\017*\266\243\034@\003@\033\230NGK\251\003@\361\t\013\033\004\217\003@D\327\272O\2352\010@>\321\306@\332p\374?\342Q\211\254;\335\005@\001%#\240\001\306\005@yX\002\313\354O\004@\302\025\272\257\370Z\002@\3643^\376\245\031\004@\273\367\255D\365d\371?\262\367\017q\253.\001@\340Hq{\353\006\002@\202\025\370\006\323\255\000@\342\005^X\344\221\005@l\000\210\257Xh\007@\326\333\\\274\314\306\363?\341K\315\177>F\005@\367\273\342v\254\212\004@"
      }
    }
  }
}
node {
  name: "Const_2"
  op: "Const"
  device: "/device:CPU:0"
  attr {
    key: "_output_shapes"
    value {
      list {
        shape {
          dim {
            size: 39
          }
        }
      }
    }
  }
  attr {
    key: "dtype"
    value {
      type: DT_DOUBLE
    }
  }
  attr {
    key: "value"
    value {
      tensor {
        dtype: DT_DOUBLE
        tensor_shape {
          dim {
            size: 39
          }
        }
        tensor_content: "\340K\363\017\352\\\326\277\005\031&\245\017\345\264\277\021\006\352\014\355\305\306?\305*\010e\227K\337\277\332gn\025\367*\267\277\0047\325m\220\217\341\277\026\336\340\216\0007\320\277\340\214\032 \306\221\323\277\216\361\360\240\302@\324\277\274\206U\232}\277\264\277\360u\017\205U\037\266?\021\037\367\215\266\306\305?\330\321\334\270\315\037\333\277:0\032\325\242W\321?\264\2060Q\241\275\310\277\202\323\006\033\302\355\326?\321\210\016\316i\316\335?M\362\255W!v\322?\226\243GD\374f\321?\003f\221\351\273\202\250?1|\303e\347\331\312\277\375\273\323\016\216\214\274\277\336\330$\360\013\302\255?\261\222\354\227n\351\344\277\275\t\320\352\206\252\360\277\244\363\323\227\235\207\331?\274\313\026I#\326\334?\036{4};\177\301\277\"k\330\317\262\246\301\277\326O\324\324\026\333\265\277\322Q\273\232\334/\324\277\327wn\360\312g\313?\306B\006\361\025\236\307?=\332\350\2144\247\260?\342\330&\273\316M\314\277\371\321\344\244\270\342\253\277d\322\313\206\237?\354\277\347(42\241\021\323\277o\013\331\201\r\301\305\277"
      }
    }
  }
}
node {
  name: "Const_3"
  op: "Const"
  device: "/device:CPU:0"
  attr {
    key: "_output_shapes"
    value {
      list {
        shape {
          dim {
            size: 39
          }
        }
      }
    }
  }
  attr {
    key: "dtype"
    value {
      type: DT_DOUBLE
    }
  }
  attr {
    key: "value"
    value {
      tensor {
        dtype: DT_DOUBLE
        tensor_shape {
          dim {
            size: 39
          }
        }
        tensor_content: "B\221\363\244Z\020\322?]\321lGO\023\341?\322*\013\004\023\r\330?=\377\200\323?c\333?\"\013\333Y\230\370\346?\376t\266|\370\375\334?\234E[\271B6\352?F\242\262R\242\025\345?65\006p\250j\326?\327\202\001\3561,\326?\276\303\227\225_\315\221\277\355\236\305\203\333g\314?\010\331 \217m4\322\277\304\202\277\222b\273\324?\314]R\211\013T\337?\243b>9&\236\324?Y\341\326c\372\227\320?\304\207Vw^!\331?\325\277j\377\250\244\330?[\361\021\222\236Y\311?\260\312(\246\350\315\340?\365\375\333\245\0266\342?,\r\201k\216$\353?3\372?\357\306Y\330?\202t\237\204\342\036\326\277p\337\237\205Y\235\333?U\036\357\322\321z\332?T\\w!\306\314\344?\221\214\023\262.{\346?\\W\273\235\032\205\341?\326p\022\006\206\035\335?\025\2002dl\004\362?4Z\201\030\375\302\353?<5{\237\276I\353?X\005\014fL\t\340?\345\0323\000\227\337\346?K!\362\031\327\224\325\277\030\207\266\307\031U\334?\036,a\227\0057\334?"
      }
    }
  }
}
node {
  name: "Const_4"
  op: "Const"
  device: "/device:CPU:0"
  attr {
    key: "_output_shapes"
    value {
      list {
        shape {
          dim {
            size: 39
          }
        }
      }
    }
  }
  attr {
    key: "dtype"
    value {
      type: DT_DOUBLE
    }
  }
  attr {
    key: "value"
    value {
      tensor {
        dtype: DT_DOUBLE
        tensor_shape {
          dim {
            size: 39
          }
        }
        tensor_content: "\206y\375\364.|\302\277I}I\223\256\024\262\277\224\321\006td0f?\331\362\002;\020\217\304\277gO]\311)\202\323\277\231\330\230\362\335\343\301?\347\2177VW\026\323\277\270IB\014\276f\317\277w\005\003\030\346\340\265\277h\356E\000\351>\245\277NIM\360!\235\301\277w7\337E\342\310\202\277\307\246\347\256C\256\321\277Y\242*\037&C\223?E\356\303\017\311\2134\277x\002\207S\314\364\306\277\026\265\212\374\021\205\310\277\326\204\017?\314^\271\277\302\357\256\017\315\212k?L\211\311i\262)\263\277\373\010\314I\017\220\270?\313\267\314\006Q\357\302?\266\204b\256\307:\317?-\276~\032\207\205\302\277Y\t\263.\252P\326\277\004\034a\177gX\275\277\3450\034q\233\201\306\277\263-\033R\371\317\255?^\204\247D\370\246\302?P\221c\337<\364\273?\275uX.6c\277?5\002\n\2146\216\335\277\306h\357\214\335&\332\277\211\317\277\367\325\332\336\277\335\373\273\020\013\377\303\277\330p%\256R\211\315\277\366\356FQ\277\337\314\2777\020A+\362`\311?|\325P)\264\237\321?"
      }
    }
  }
}
node {
  name: "Const_5"
  op: "Const"
  device: "/device:CPU:0"
  attr {
    key: "_output_shapes"
    value {
      list {
        shape {
          dim {
            size: 39
          }
        }
      }
    }
  }
  attr {
    key: "dtype"
    value {
      type: DT_DOUBLE
    }
  }
  attr {
    key: "value"
    value {
      tensor {
        dtype: DT_DOUBLE
        tensor_shape {
          dim {
            size: 39
          }
        }
        tensor_content: "\277\031\326e\3271\266?~d\204.8\'\275\277\336]\350\306\303g\314\277\206D\231\0213e\272?\360[\367\004\355\320\316\277\025\301&t\357\327\311?\302\273k\210\017\275\274\277\313d+:\005\002\277\277\345\365\224c\370\275\303?C\273\375=}\237\252\277\324\031\2774*\320\264?L>\036\212\341\330\313\277\362e5\210\366\n\262\277Rj\'\331\3373\275\277\0255\320;\226\214\267\2773\310\233\325t^\344?\314\031C\202do\350?B\021\306xy\335\345?B\245[q\217J\346?v\203J\215\304%\314\277yU\321\275\320\027\313??\333#6\246/\322?\354\'\367\240.\010\322?wP\t\273@\272\264?\206{\037B\355\027\323\277<\026M\n,v\325?P\263`\261\354\002\333?@\255\005~=\226\237?\372\373tLx\243\224?aJ\234t\344N\301?\322z\261`\356\216\224?\230%\215$\223\236\272\277\231-sK\377\007\241?w\363\246J\247)\271\277\263\312\\\212\366\236\305?\350\257\216\373j:\267\277\366y?\350\231\263\306?\226\253\330\255\277B\321?ep\345:?\002\327?"
      }
    }
  }
}
node {
  name: "Const_6"
  op: "Const"
  device: "/device:CPU:0"
  attr {
    key: "_output_shapes"
    value {
      list {
        shape {
          dim {
            size: 39
          }
        }
      }
    }
  }
  attr {
    key: "dtype"
    value {
      type: DT_DOUBLE
    }
  }
  attr {
    key: "value"
    value {
      tensor {
        dtype: DT_DOUBLE
        tensor_shape {
          dim {
            size: 39
          }
        }
        tensor_content: "\203\236D\240\007\270\257?0L\276\230\336\010\321?\036L\326}\325~\326?\357B\257%T\250\313?O\331\213\256\226Q\274?e-\365\'\204\231\302?\010\274\330E\345\000\276?\320D\007\333p>\273?\261\210r4\2140\272?\206~L*\2179\263?\033\000E\306\221P\320?;9\206\354\210\237\313?b\314tdgO\317\277\313f\005\211M{\323?\253\177\321\005\356\343\324?\364\362\027\204!\253\277?,G\007\017S;\307?AX\230\346\010\223\306?\r\211\267\177\326-\316?\352\027\206TcM\301?\365\036\353\322\360\022\301?\202\230\245$hB\300?<\207Q.\354\006\325?\037u\203\317\363\250\321?T\337\033\014\335\240\321\277\364d~\374x{\265?&\244\375\243\210F\313?\034\227\225p\376<\222\277qE\266\261H\246\210?4|U\342\r\216\242?q-\231.~\311\305?pAg\353\227n\266\277\337]\263\341\343\240N\277l\032\350>\243X\272\277UqY\236\325D\307\277\245\230Di\003\036\314?\352\273S\331\316\013\260\277\2149.y^\321\312?\233-\354\376\323\022\312?"
      }
    }
  }
}
node {
  name: "Const_7"
  op: "Const"
  device: "/device:CPU:0"
  attr {
    key: "_output_shapes"
    value {
      list {
        shape {
          dim {
            size: 39
          }
        }
      }
    }
  }
  attr {
    key: "dtype"
    value {
      type: DT_DOUBLE
    }
  }
  attr {
    key: "value"
    value {
      tensor {
        dtype: DT_DOUBLE
        tensor_shape {
          dim {
            size: 39
          }
        }
        tensor_content: "\037\346\311\352O \306\277n\341\370\270\335`\244\277\030T\300A\315il?\347\316\007\373:\023\237\277\243Q{\203\221\004\270\277A\351\266\242Y\001\230\277\002\002:\222\362\233\274\277N\327\240\211Q\234\240\277\2008}\\\373\217\274\277\313#|\025Xs\322\277\213d\307\373\271\\\274?I\177a\207\2345\241\277n\317j\\\255+\331\277Ze\327\265\331\020\252\277\252\301\331\300\325d\200\277\261\3639Wi%\265\277\357v\360\327\202\026\201?\363zh\307$\315\200?\2644Pb\311\214\230\277\316\204>f\321\237\271\277\246\003\236\030\250]\177\277\352\305\no\230\036\277\277\2541\005$\324\361\240\277f\034r\t\311\340\204?\222\364I\251i\364\323\277-,!\273\302r\245\277\321Z\301\302~1\263\277+\020\2258a3\271\277\2147\222\030\343\212\304\277\351\254\265\3527\326\251\277\314\340t\357\027\210\241\277\236}\230\261\273\267\314?\223\244riA\316\324?\"\326\267\020\276\327\322?\245\026#\'?>\222?o{\347C\215u\207\277\225\304\325\232\220`\322\277\022kI\\\261\016\267\277\320e\352\037\346\027\305\277"
      }
    }
  }
}
node {
  name: "Const_8"
  op: "Const"
  device: "/device:CPU:0"
  attr {
    key: "_output_shapes"
    value {
      list {
        shape {
          dim {
            size: 39
          }
        }
      }
    }
  }
  attr {
    key: "dtype"
    value {
      type: DT_DOUBLE
    }
  }
  attr {
    key: "value"
    value {
      tensor {
        dtype: DT_DOUBLE
        tensor_shape {
          dim {
            size: 39
          }
        }
        tensor_content: "\326j\003-\270 \306\277\241#\'M\242\246\250?\225\255\331\262)\331|\277E\267\316v\200}\266?\231Pg\245\242\236\262?%\000\271\230\325E\243\277[\001\365hM6\234?\203JG\231EPu?\267\272\341\212>9\235\277\206\214\257h\235\254\303\277\377U\2224\3170\305?-u\345\352\211\355\271?W\377\206y\325\377\301\277\242\016|$\013_\244?1\317\305\370\005\315\225?q\0368P\341\217\320\277\022\221\265=(a\324\277\236\313\035\216\374\023\307\277\251\314\365=\241&\317\277]\2638_\037\010\275?b\270Jedw\272?\377c\306\335\237\276\261?\212\003\300\'\265\222\221?\330\213\375\306\230=\271?5\334\326\240\343l\255\277\254\021\224\364D\255\324\277\242\251\016}KF\327\277\np\372U\233\323\235\277\241\312<\025\266\037\247\277\315\230r\031}\270\260?(}\255M5\337\326?\265\300\206\365\222\345\276\277\002#\317Q\202\'\304?_?\317\177\327s\235?\246$\236\356\372\t\307\277i\272\364\253\353\245\201?v\221\363\023|\335\304\277D\256zY\373\324\271\277\247F\222\027pL\302\277"
      }
    }
  }
}
node {
  name: "Const_9"
  op: "Const"
  device: "/device:CPU:0"
  attr {
    key: "_output_shapes"
    value {
      list {
        shape {
          dim {
            size: 39
          }
        }
      }
    }
  }
  attr {
    key: "dtype"
    value {
      type: DT_DOUBLE
    }
  }
  attr {
    key: "value"
    value {
      tensor {
        dtype: DT_DOUBLE
        tensor_shape {
          dim {
            size: 39
          }
        }
        tensor_content: "\366\243\031\020O<\241\277sJ\245t\223p\270?7\311\304^\273\303\270?\361\221\326\210\037 \274?ko\321B\033\320\272?\216\333\3731\022\362\314?\221i\024\254P\342\270?\002O\312\263\233#\272?G\014F\020\013\355\271?f\221d;wK\200?0R\202\362)\204\267?\307\262\337k\247\254\271?\'{\332%\217\322\302\277\246\302:0\317>y?\261\307\024\201\360DW?\226BG<6N\220\2776\336\223@\340T\255\277\201IH&R\247\240?\266$j\310\017Hr\277\20222\252\223j\303?\221\364\207\331\243\023\315?R\037\332\226E\375\304?\324V1I^<\315?\034$\321h\026\\\257?I\033\271\303\211\363\200?i\275\224\343M\231\277\277Lv_\260\006/\274\277\007Y\234\263\376\336\276?\216\210\263B\t8\273?:\345qf\033\252\304?t_\343\356b\205\306?\205d\211\341F\326\221\277b(\030=2\337\300?\320\353/\017\241\\\227\277_\003<?\3115\262\277\200H\315\361wf\263?\247\320\227r6P\244\277\213Iw\224`\356\272?\260\305\365\312\2604\274?"
      }
    }
  }
}
node {
  name: "Const_10"
  op: "Const"
  device: "/device:CPU:0"
  attr {
    key: "_output_shapes"
    value {
      list {
        shape {
          dim {
            size: 39
          }
        }
      }
    }
  }
  attr {
    key: "dtype"
    value {
      type: DT_DOUBLE
    }
  }
  attr {
    key: "value"
    value {
      tensor {
        dtype: DT_DOUBLE
        tensor_shape {
          dim {
            size: 39
          }
        }
        tensor_content: "\262\2424\322\357\224\275?\202\032w\226\234\313\267?\305\267\200\022\362\304\310?\317\201\027\312cF\265?\177\264#\n\014\337\231\277\267\343\026\360\252\235\310?\316br\322\007 \255\277\224m\307]@\361\267\277A\314.\225\330I\263?\346a\016\214\366\037\244?2b\312\313Q\026q\277\037^\225\'\256\017\301?@\367\373\032:\204\246?\223\377\272\367[\311\267?/x 9%!\267?\006\243l\355.z\276\277s\324\274\242\031\324\270\277A\354;\017\351\370\273\277\357\026\247\302Pc\256\277\t\207\214\351\0339\277?\235\267\3064l\275l?X\342\3659l\372\237\277\367\366\002\233\346\312\275?T\324b\345\032\223\236?\200\001-\006C+\315\277d\270\370_\330L\304\277\267:\230K\334\307\244\277s\206\013\244N\223\241?D\265\335\224u}\275?b]L*Y\021\231?\226C\022\005E\031\321?\251i>\333P\264\251\277\216T\210<\260\244\263\277*\300>\2427%\275\277\373\277\r\220s\377\224?\006\252{\177\332\360\270\277\245\350u\320\216\312\306\277\230\2446\267\036{\274?Iw\327\256\030\350\261?"
      }
    }
  }
}
node {
  name: "Const_11"
  op: "Const"
  device: "/device:CPU:0"
  attr {
    key: "_output_shapes"
    value {
      list {
        shape {
          dim {
            size: 39
          }
        }
      }
    }
  }
  attr {
    key: "dtype"
    value {
      type: DT_DOUBLE
    }
  }
  attr {
    key: "value"
    value {
      tensor {
        dtype: DT_DOUBLE
        tensor_shape {
          dim {
            size: 39
          }
        }
        tensor_content: "\010\210s\345I\222\201?w\0229.\350\342\237?\375\276\216/\\H\244?P\377\355\202\373\225\207?,\270VE\254\246\242?e\276\032\251\226\037\211?\337\037\263x\020\030\245?\036\240\306~\232\347\232?S\004\376\031\233\321\207?c\200t\025fp\203?\3036\257\246m}\211?\017{Vj\201\231\242?c\376o\032\250b\223?\224\307\024\016\267\202\242?\030~3+t\254\236?\337\352x!cX\220?\277\2614M\t\212\230?\260\217\016X\244b\211?\216\202\332H\204\301\221?\3535+\354\233*\244?\033|\361{\315\027\214?3\301\203:\022^\215?\025\376bWU\201\210?\227vV\231tE\214?\264u\247\022\253L\203?_\264fY\253\317\221?\263G\275r\203\303\203?Z\241xl\2212\207?M\305)\007\232\201\214?d=\330Pd\023\200?kCV\216#\n\242?Y\315\362n\332\364\223?UEWmG\253\212?\301\026\205\334\027\000\224?U\307\333\247\224\027\216?\224z>\320!\024\235?N\302\347\301\253Ko?\325|\tc\213\226\213?\235?\3103\302\376\226?"
      }
    }
  }
}
node {
  name: "Const_12"
  op: "Const"
  device: "/device:CPU:0"
  attr {
    key: "_output_shapes"
    value {
      list {
        shape {
          dim {
            size: 39
          }
        }
      }
    }
  }
  attr {
    key: "dtype"
    value {
      type: DT_DOUBLE
    }
  }
  attr {
    key: "value"
    value {
      tensor {
        dtype: DT_DOUBLE
        tensor_shape {
          dim {
            size: 39
          }
        }
        tensor_content: "\033\366P\2729\302\201\277\335\002\002:\021\227\256\277\307\'\3743\002\210\274\277\246&Z\255\247\001\254\277C4\2448\036C\211?\2768\017\252\\\262\262?5\033t\341\262\317\216\277\354ga\313B\315\222\277[D\364\234\314\347\262\277\036n\322\214&\267\245\277\344\306L\354j\210\270\277,\307\r\017\320\265\274\277+7D\250\322\014\222\277\243\016\036\341\020G\273\277\322\222*\032|w\263\277\266\347?\373\222\022\262\277\270\272\310D\017\023\266\277k\205\316\025\242\032\266\277\246\367\014\2637\344\270\277\215\370\343\266\336W\263\277\267\263\373\333nJ\301?Bj\017~s\r\303?\371\\\361?\316 \266?R\353\034\250`q\264\277\326\345\221\263B\207\262\277/\004\214\253\033\317\261\277q\311C\007\356\365\243\277gU_2\'\203\230\277&TW(\374W\206?,\237\246\374\225k\251?G\035\017s\374\276\261\277\316\301\246\315\027@\271??m\373V\352\247\301?\013\027<`\251<\303?4\263\277\235d\213\267\277u:\321dVFk\277QD\272\376/\353\263\277rEB\212\301\\\263?\360%\250# \365\206\277"
      }
    }
  }
}
node {
  name: "Const_13"
  op: "Const"
  device: "/device:CPU:0"
  attr {
    key: "_output_shapes"
    value {
      list {
        shape {
          dim {
            size: 39
          }
        }
      }
    }
  }
  attr {
    key: "dtype"
    value {
      type: DT_DOUBLE
    }
  }
  attr {
    key: "value"
    value {
      tensor {
        dtype: DT_DOUBLE
        tensor_shape {
          dim {
            size: 39
          }
        }
        tensor_content: "f\346\236\3121\025\265\277\300\017O0\310|\230?\305\212\357r\346\307\215?\206\314\253\223\366a\264\277yow\236\361|\237?\372\212\3542\345(\240?\265x\342%;\214{\277\332\316\206\0136\330\234\277?Z\250\0243\343\275\277\215\352\013\302\334)\273\277=\353\226\331\252J\262\277\225\302\010\\\341\313\253?6\274A\354\220\372\274?\201\000\265l\240,\266?mh\244\'y\350\264?\211\212\372\'|\225\301\277\025\345\246\204\333\373\273\277\250S\310\"#\020\304\277\204j)\253\201\324\304\277\014/ib\207\035\257?\037 \024\244\254\231\207?\332\200\034\265\367\351\256??\004\206\207\352Jw?\036FEE\253\372\234\277\216g~E\362h\211\277\037\313\360\272n\245\277\277\322N\224\314\346\272\301\277v\372\250\031C)\257?0\232[\024\262\331\262?\016s\266\277\316\000\255?8\"F\031\221\250\304\277\311\036WM\363\316\277\277@\230\3170\310\025\273\277\213\302\271\177\024M\305\277\275\351%\364\220R\302\277,\347H\257\252\224\207?46\341\314&\202\303\277gpve\265\310\276\277\352{\314-\315\207\311\277"
      }
    }
  }
}
node {
  name: "Const_14"
  op: "Const"
  device: "/device:CPU:0"
  attr {
    key: "_output_shapes"
    value {
      list {
        shape {
          dim {
            size: 39
          }
        }
      }
    }
  }
  attr {
    key: "dtype"
    value {
      type: DT_DOUBLE
    }
  }
  attr {
    key: "value"
    value {
      tensor {
        dtype: DT_DOUBLE
        tensor_shape {
          dim {
            size: 39
          }
        }
        tensor_content: "\006\\C\244\351`\213?U\234\031\264c\005\240?\235\200n\2268\261\242?1\271\035\333\347\331\235?[\315\026\362\013W\220?cN\266&^0\203?\237\213\013\207\235\257\231?\340=\227\366\024`\222?\207\227\363\205b\321\203?\311 \030C\027\311r?\372\265\021L/e\212?XM\376w\245p\252?vw=RH{~?V\264\260\026 \330}?}\330\307\354\013\271\204?\247\325\236\320\027\330m?\251\010\007\214\266Om?\364\214\333\007o\306s?\243\234\343\314_\320\215?\034\275g\010\"v\233?\344\010;\277Q=\243?\223\037\344\360i\007\242?\202g!8\003f\245?\354S\253~H\003\207?\024\006q\207\373Fj?\023\216\327\335\205&\207?\266\277n\360\244\353\207?\001,\177\313*\345\244?\223\215\215\202.\'\244?\300:\t\255!\256\222?\307\024\005C\201Dv?]\344]\306\3344x?\232a\256\\0\334f?\000\357P\343p\373p?G\302\020\311\263.\210?~\365\223pL`\224?\016\tgW[\356z?Y\0037\301}\212\201?\272\235\251x2\205\203?"
      }
    }
  }
}
node {
  name: "Const_15"
  op: "Const"
  device: "/device:CPU:0"
  attr {
    key: "_output_shapes"
    value {
      list {
        shape {
          dim {
            size: 39
          }
        }
      }
    }
  }
  attr {
    key: "dtype"
    value {
      type: DT_DOUBLE
    }
  }
  attr {
    key: "value"
    value {
      tensor {
        dtype: DT_DOUBLE
        tensor_shape {
          dim {
            size: 39
          }
        }
        tensor_content: "l\213\372\027h\304\204?\330\373~\'d\263\207?\246G\030\2204\370\222?y\003[\333\215\341\225?\"W\217,\0272\204?|\026\345\"\200\310\224?L\267\332\204%Nz?\363A\247\000\357^\227?h\267\0313C\250\204?\'SB7\320\313\207?\377K\n\022C\205\207?\335\310\213\017S\357\222?^\203\251?\027\210\204?\027F\362\032r\002\230?\326\255\377\367\302\350\231?\006\237\" \005\362\241?\2443\310\317\023t\235?\201?<\252\377\317\245?-\220M\377\351t\256?\035\275\221\372\203H\212?F\266\365\231{\214\205?\010(\324\322\301c\205?\207\3375\372)\271\214?ml\'s\342\232\221?\205`\0241mTf?,\207\352\324\003\021\244?]\204s\365Yi\261?\244\275\260\036\372\226|?,\233:j\256\276\216?\302\310\271cl\330}?\030\322\204\307\230\037\224?\240\236X\020*\035\235?\005f\226x\315\000\212?(~k\243\326n\221?\0179\224K\t\263j?\013aB\235\026:\201?\033\010\003\235\033\336e?\347\255\300\031I\030v?;c^\332\233W\202?"
      }
    }
  }
}
node {
  name: "Const_16"
  op: "Const"
  device: "/device:CPU:0"
  attr {
    key: "_output_shapes"
    value {
      list {
        shape {
          dim {
            size: 39
          }
        }
      }
    }
  }
  attr {
    key: "dtype"
    value {
      type: DT_DOUBLE
    }
  }
  attr {
    key: "value"
    value {
      tensor {
        dtype: DT_DOUBLE
        tensor_shape {
          dim {
            size: 39
          }
        }
        tensor_content: "\302T\027\271\005\221\204?\327\207\014m\203p\237?1\333\316\222i\247\233?\256=5\247\354v\212?:\341P\313\344\226\233?\3575W\365\373\200\205?\260\263\207\027{\333}?\365\240\274!H%\200?\336\246\356r*,\205?}\250Y\222e\t\201?,=\017\231\227\210\221?U\250\253\327l\\\224?]\325/\242\326\365\201?-\301H\361+\035\221?@\301\3111\300\315\221?\351e\367\205J\006\227?\002\217\245\t\245\244\241?\323\006\327\003\242N\235?\357\034\360\266b0\231?\313\004\2273\206\247\220?\017;\250\230\013\300\243?1\222\275\260[o\215?`\202m\267\232\207\232?\350c\0073\371\342\212?\016#\257\030\267Pg?\213mD\301@1\240?Q\243\022\333\372\026\236?\223qo\302\355\247\204?4\364\366\262\252P\204?iE\211\016\252\316\226?\272_\220O\'9\210?.H\030\017<\206\226?\013_\354<\246\374\215?\316\240\227=&N\214?t\370A!\030\014}?\017\227\370\000\362.\242?\3626\343\206\202Bw?\244\200\316+\034^\224?\235\013\332Pk\305\240?"
      }
    }
  }
}
node {
  name: "Const_17"
  op: "Const"
  device: "/device:CPU:0"
  attr {
    key: "_output_shapes"
    value {
      list {
        shape {
          dim {
            size: 39
          }
        }
      }
    }
  }
  attr {
    key: "dtype"
    value {
      type: DT_DOUBLE
    }
  }
  attr {
    key: "value"
    value {
      tensor {
        dtype: DT_DOUBLE
        tensor_shape {
          dim {
            size: 39
          }
        }
        tensor_content: "D\250\204\26229\202?\302;\307Pw\247q?d\362\th\206%\206?\001\237\235A\311_\211?\242\024-\302\241\321u?\254\273\246w\035\307\217?\374\352\222gD\267\206?n\030z\002\277\374\204?|\003a;-=z?\252\311+\356\001\207{?\267\357\036\217\350*w?\223\007B\353\003\n\212?-^b\273IN\203?L\026\257\367\371\323\243?yV\237\n\014\020\240?\226/\346G5B\241?\000\004$r\205\233\226?\307\031\201\031sJ\226?j\252\023\310l\242\226?\2556X^\351U\216?\243ow\273\253\237s?\266\036\224\324\3647t?+p\222\264\r\001w?\273\307\304&<\276\222?Yi#+r\213e?g\033z\203\343\220\214?\330\207ZA\253s\220?\334p/\270\035r\200?\244\351\240l\255\335z?\376\216QU?\271o?\256#H\321p\357\227?\331)\234\004\366\236\220?\021\346D\372\216\360\207?_\234;\276\243\200\211?\207\222\370\250\035\026u?\211\036k0\370\360o?\263YNr\225wR?\000\025\t5@\247\203?\2641_x\342Y\201?"
      }
    }
  }
}
node {
  name: "Const_18"
  op: "Const"
  device: "/device:CPU:0"
  attr {
    key: "_output_shapes"
    value {
      list {
        shape {
          dim {
            size: 39
          }
        }
      }
    }
  }
  attr {
    key: "dtype"
    value {
      type: DT_DOUBLE
    }
  }
  attr {
    key: "value"
    value {
      tensor {
        dtype: DT_DOUBLE
        tensor_shape {
          dim {
            size: 39
          }
        }
        tensor_content: "\357\235\322\21400{?hMZ\304\024-q?\317\000N]\377\270\205?\326z\264:\357\342z?i\227v1]\221i? \264\324;OZ\222?V\"\267\034[/r?\003\224{k\256Q}?\274vR\371\241\\y?\324J\301-\371<v?.K\377\331\035\320x?9&\261g\005oj?\013s\003\025!\336h?bp\373\036\321sp?d\023D\270\205oj?\365\035.\027\033\226\220?\253>\274\273\332\350\270?\006B\027f\025\027\240?\321OI\274\311\305\225?\001\370\205\206u\322n?\341\210\276\003Ui\205?\227Y3\036\372\003\220?\316;\220\203`b\224?\344\273\033\212\313\206\221?\177\205\003\036\036\rW?>\335\203\032\275\211x?\336Qs\374\253\360\207?\323\254O\221\321U\211?\212l\235\365}\345\211?0\274\026\226\tv\222?EiH\312\"0\211?\353\234\266=\025\337\232?\037\227\021\362\224\273\217?<\275\207\371~\263\204?t\312\037\025\021\343x?\351\n\003\3178:\204?/\000\305\332\t\327`?\324\357\200/\030^\230?\262\"o:\370\036\200?"
      }
    }
  }
}
node {
  name: "Const_19"
  op: "Const"
  device: "/device:CPU:0"
  attr {
    key: "_output_shapes"
    value {
      list {
        shape {
          dim {
            size: 39
          }
        }
      }
    }
  }
  attr {
    key: "dtype"
    value {
      type: DT_DOUBLE
    }
  }
  attr {
    key: "value"
    value {
      tensor {
        dtype: DT_DOUBLE
        tensor_shape {
          dim {
            size: 39
          }
        }
        tensor_content: "\260\204\303rq{\224?\246\340r\276\334=s?\214\222\256\023G\254x?\371g\352K\201\315\200?e\006 \221\025\202w?X\262\005\373\343\303\215?%\200\220\235>\357\207?\333\370l\025\210\362p?}!J\324=4\220?\272\017\252\372q.\221?\231\357|\322\247\251h?<\001\0236\333\350\203?G\366\224\013\'\266}?[\272\335\376.\031u?\352F\311MP\250j?M\213\210l\270\002\217?3\350$%\005y\236?\337\225\321\363\324\006\241?\351\264z\332\253u\240?\206\332|\243\214\332\210?OT\202\200\346F\233? eHg\370\001\222?G\200\237\236\261\246\235?\027\351\225\\}$w?\252I\343\036T\206p?\340*9\220@9\202?\206\311\262j\342jr?Z[\366\350\007V\223?\023\267B\024K\371\225?\006*\216\334<\320\244?\220\341\200\364c.\241?\226\241\036\201\317\275\203?\273\346\222\255\311\273\201?*cF\364D\317\261?\202\341<!\337\237\206?y\206p\006\"\220\206?\016<5\240a\240[?.\267\323<6\334\222?a,R\300\372\227\227?"
      }
    }
  }
}
node {
  name: "Const_20"
  op: "Const"
  device: "/device:CPU:0"
  attr {
    key: "_output_shapes"
    value {
      list {
        shape {
          dim {
            size: 39
          }
        }
      }
    }
  }
  attr {
    key: "dtype"
    value {
      type: DT_DOUBLE
    }
  }
  attr {
    key: "value"
    value {
      tensor {
        dtype: DT_DOUBLE
        tensor_shape {
          dim {
            size: 39
          }
        }
        tensor_content: "\000v7\365bwq?\334kd\212\006&{?\352*\332cv\037t?-K\236\273\251\032\200?\254D\010Y|Qz?\252\030\352-U.v?\314\230!\360\212\346r?M\n\243Yb`p?\3715\277\215l\027\204?(\232Ey#%|?\037\031Z\374\3121u?\270=B\337\251,s?\016`\222\351\257Us?!(tJRyw?!;\216H\006.}?H\264\340\227%w\210?\216q\023d\037\367\213?\217\201\270x\322\265\240?D\260\0356#N\215?\205\200\313\247%\212u?mj\235\356z(\177?R\371\375\026\3201w?{#\217\226[\341\177?nz\375\234W\323\200?\374\251\002q\177\376\200?\221\3672\263\n\335|?\002\365R\267\r-\200?\317\361u\233F\311s?\334\\r\010\014*\200?}i\032\035\315\316\201?\261=\006\304_Qp?\0313E\302\317\323\200?\215xLXc\302\203?\tA\260sx7\177?\003\300L\367\304\205\205?l\252\271\220x\221z?ER\337\\x3i?\202j_\321\271w\204?\027\017\257,\226\364\205?"
      }
    }
  }
}
node {
  name: "Const_21"
  op: "Const"
  device: "/device:CPU:0"
  attr {
    key: "_output_shapes"
    value {
      list {
        shape {
          dim {
            size: 39
          }
        }
      }
    }
  }
  attr {
    key: "dtype"
    value {
      type: DT_DOUBLE
    }
  }
  attr {
    key: "value"
    value {
      tensor {
        dtype: DT_DOUBLE
        tensor_shape {
          dim {
            size: 39
          }
        }
        tensor_content: "1+\312\344\242E\224?\263V\305\3566\202\254?c\177GR\177\362\233?!\273~\230\360\256\232?p\t\303\340>\361\241?\3518N\223\213<\214?`b\235\311o\301\204?\254\027\033\366:6\211?\354\013\021\245\216\261\203?\313lr]\366\001z?e\266T.;\307\263?\331\2677fdq\221?\200\365\257\251h\230v?%t\272\304\n\231\203?\203\234\272\032\325\323\216?%\206\310\311\261\324\212?\225\303\352\221\241e\237?J\255\r\275\002%\224?\343\026B\350\322\214\241?\374\033S\r\370\262\204?\211s\314\236Q\215\240?\301\201\261\352\272\232\225?9jt\016\377M\241?\366Q\316/\277\270w?\320\035+\310\241:\200?T\216\211y|\237\251?\347\020\267\251\346\212\221?\016}a\217\257N\220?\203\024\233\'\230V\212?\327e\316\203}\203\244?\215\016P\216(Ux?\003\007\232\227#<\237?\341d\256\320\271\314\301?\326\351] ;\364\226?\026\331\376\263\202}\233?\277O\331.\310X\243?\370\241\251\301\']\222?7\367W\257\363.\244?\306\351\343L\'\'\252?"
      }
    }
  }
}
node {
  name: "Const_22"
  op: "Const"
  device: "/device:CPU:0"
  attr {
    key: "_output_shapes"
    value {
      list {
        shape {
          dim {
            size: 39
          }
        }
      }
    }
  }
  attr {
    key: "dtype"
    value {
      type: DT_DOUBLE
    }
  }
  attr {
    key: "value"
    value {
      tensor {
        dtype: DT_DOUBLE
        tensor_shape {
          dim {
            size: 39
          }
        }
        tensor_content: "\034Ek(\016d\t@Q\016r\032V\n\010@\327\033\035$G\205\010@\002x\206\230\177e\010@\352\377\234\330p9\t@\342j\316L/&\010@?\202\326\022y\326\010@\277}~\301W\324\010@\247\377\007\226-\306\t@\314%\006\321r\214\010@\337Q\263\031\231\345\010@3I\177\022\020\271\010@*\002\247\331\214\007\010@\274\205`\204i\001\t@\2428\001\014\270\225\010@2\345\224\006\351X\010@\013\004Yl\232\322\006@t\322qv\202\350\007@>\354\337\246\320\320\007@\366\372\240Jb\316\010@3\203B\233\024\266\010@\272\177\251\225\\\371\010@\220\032\250\311at\010@\303\021\334\322I~\010@\221kj\337\246\354\010@\027\"[\304<\007\010@\372\205\036\333M\302\006@\267X)\307\025\367\010@r\326\0243\364\306\010@\364\374\005\035\t\"\t@\276tmV\272\361\t@!H5\246\245\314\010@\001\224\006\234\210a\010@r\257\303Z\253\351\010@\363\232%w\302$\t@\367;\253C\211\316\010@\024\225<\213X]\t@|\257O\220\3127\t@\334\321\220>\304\004\t@"
      }
    }
  }
}
node {
  name: "Const_23"
  op: "Const"
  device: "/device:CPU:0"
  attr {
    key: "_output_shapes"
    value {
      list {
        shape {
          dim {
            size: 39
          }
        }
      }
    }
  }
  attr {
    key: "dtype"
    value {
      type: DT_DOUBLE
    }
  }
  attr {
    key: "value"
    value {
      tensor {
        dtype: DT_DOUBLE
        tensor_shape {
          dim {
            size: 39
          }
        }
        tensor_content: "r\325\330\306\000\323p?\014\311,\335=\313\212?r/\360Zm{\202?\370\215\366\320\300\024{?\302\3130\252\000\203u?\363\346w\250T(\213?l\326\237\200&}{?\270\007e\004\223+\206?\251\330\024$\350\035x?\202\335\204\314k\326\200?\335\037\371\344\353ou?\025\355\3026\323\217~?aKR\231\355\256p?9_\027dS\217\205?\375i\313\250\375v\222?.\262&\370\021w\254?G\221\022Zg\366{?\347\263\330\324\361|\220?`rz.\204 t?\262\220\313\335\361\262\200?\360\312\352mJ\340\201? \361\364\024t\245\203?9\361w\277\270\303\207?6\267\241\314K\240\203?\'\035\017H\221\352z?\002i\"Yy\001p?\244\031\027\266\204\360\210?\255>\256V\n\300\201?\027\317\266O\003\031\205?r\236.\233\200\024\200?!\"\324K\000\'\177?\017\244\361.\352\376\200?V\357\324\317}k\200?\r\250\006\035/9\202?h\257E|\\\376x?\212[\227\225Zpw?\275IG\235Evw?[u\221\357\307\204y?\t\2150E\306\326\203?"
      }
    }
  }
}
node {
  name: "Const_24"
  op: "Const"
  device: "/device:CPU:0"
  attr {
    key: "_output_shapes"
    value {
      list {
        shape {
          dim {
            size: 39
          }
        }
      }
    }
  }
  attr {
    key: "dtype"
    value {
      type: DT_DOUBLE
    }
  }
  attr {
    key: "value"
    value {
      tensor {
        dtype: DT_DOUBLE
        tensor_shape {
          dim {
            size: 39
          }
        }
        tensor_content: "\301\301\376\265V?u?\373T\234\2769\236\232?\344\356\312u\203\206\257?\337\002\314\267k,\210?\026\206x?\232\001\205?\360\316\245\304\244s|?\017\326Y\350\321\'{?({\324A\307\257\211?~\370\333\363\245\222\201?\264\\\007\314\347\322\200?\245W\243\006\031F\224?\235&I(2R\217?\215\010zk\266\334y?\264\321\373\267V%\215?\n\377\020\312\360\273\216?\235\037\206\032:ep?v\341!\\\363|\200?!g\224p\022\364|?\245\250\205\254\227\022q?\325x\325\326\352\275\220?\017\017\364{~W\207?S.)\032\213B\212?\247-\031\260\246\336\204?e\207Y\353\223\374\212?a\314\242\362\321\214u?\0134`\276(-r?\271\221\353JGDp?9L\036S\2132\202?\3058\323\261uK|?\023\203\014C\230[\202?\273\221\321\307E|r?\005\240\274\010@\'\227?\206\226\364]\026\017{?]\267uA\365\235\177?\362J\203\255\306e\224?`\203H\215j\330\204?\021|\306o\262e\203?\327\360<\023\333\001\223?\010\300\2725\301\000\211?"
      }
    }
  }
}
node {
  name: "Const_25"
  op: "Const"
  device: "/device:CPU:0"
  attr {
    key: "_output_shapes"
    value {
      list {
        shape {
          dim {
            size: 39
          }
        }
      }
    }
  }
  attr {
    key: "dtype"
    value {
      type: DT_DOUBLE
    }
  }
  attr {
    key: "value"
    value {
      tensor {
        dtype: DT_DOUBLE
        tensor_shape {
          dim {
            size: 39
          }
        }
        tensor_content: "\\\216\331W\311\350\210?\265\225\324B\214\010\242?|\276\356\262\240\207\230?\037\207\231\231\005\330\222?\243\376\334\026E\036\233?\'\315e\375\257w\232??\341\021\226%\334\242?\267\217\002\232\305`\224?kM\305\330N\310\240?\213R\222A\333T\233?\355\024V\256\244\"z?@\360\251\217H\355\240?\254\316[\003\324s\241?Q\342\010\2659\026\263?\364` n\271\244\255?J\232\272~\346\360o?5D\371\022 \300o?3n\200\2706\372w?\002\024\021\273\305\220\206?&\r+Z\231\257\243?\261VY\255ju\224?\257\323&V\014\363\231?\017%\344_\nR\237?\253>\255-\324\350\210?g\220\034\212\r\272y?v2+-/\222\200?\307\274\037#4\215x?6\226\374P\275\222\240?:nS\000\233\225\214?\217\373\373J\317b\220?\220[\212\320~\021\231?\217a\270\2108\372r?tX5{\032\374T?\033\003\207\r{\346{?)1\326\222\224\r\207?yg?y\377\330\205?\340\372#NP\307v?\366+\222n:\no?\372\306N9\327\020w?"
      }
    }
  }
}
node {
  name: "Const_26"
  op: "Const"
  device: "/device:CPU:0"
  attr {
    key: "_output_shapes"
    value {
      list {
        shape {
          dim {
            size: 39
          }
        }
      }
    }
  }
  attr {
    key: "dtype"
    value {
      type: DT_DOUBLE
    }
  }
  attr {
    key: "value"
    value {
      tensor {
        dtype: DT_DOUBLE
        tensor_shape {
          dim {
            size: 39
          }
        }
        tensor_content: "\023\233\n\016\357\'k?D\026\364\253\360\007\223?\273\304\375\325\353,\233?\317M\205\371L\277\177?\345\377y9\244\013v?\216\017#\317\367\250z?\202\336S\023\224\256x?\363\212\n\272\301\361\206?`\246Af\246\267t?\017\237\023\357\251\306\200?\213\343\237\252\210\367\231?\320O\263\305\r\214\212?/\354xn\250\036\202?\247\323\241m\206I\207?\360\026\2018\324\272\206?(9\354\326\210>f?\024b\200xZ8s?\3370T?\323/m?\313\271KC\nCe?\005\014\373\221\001\272\212?\337\226\273\016E*\203?\017t}\356\243\367\221?_\005i\370\3310\226?\3128\277\363\036j\216?[\262\367H\341ll?\200\377R\3671\320q?@;\272\320\005\376v?\352\261\355\234\232\235\202?\344\364\356nC{\207?I`\303\227\302\371\206?\365\335\251\260<\202x?\227\"\334)\246\301f?\271\310\316w\0029d?\277\361\256\325fVf?K\242\243A\316\251x?\344\347\270={k\203?\r\324#\032\315\311a?\257)}E\357Ar?\262b=\n\372\353i?"
      }
    }
  }
}
node {
  name: "Const_27"
  op: "Const"
  device: "/device:CPU:0"
  attr {
    key: "_output_shapes"
    value {
      list {
        shape {
          dim {
            size: 39
          }
        }
      }
    }
  }
  attr {
    key: "dtype"
    value {
      type: DT_DOUBLE
    }
  }
  attr {
    key: "value"
    value {
      tensor {
        dtype: DT_DOUBLE
        tensor_shape {
          dim {
            size: 39
          }
        }
        tensor_content: "\221\241\232\230J\250\214?\212 \235\203\244\353\241?\2315$2\220Y\243?\245\246\320\375.\243\224?]\022m\254\264j\232?\'\244\230C\322\336\223?\314\342m\356y\275\225?\230z\355%\014\317\230?\016l\005c\253\030\221?\212[\3527\321\300\213?\267\331\031\266\002f\242?\205*,\267\317\311\235?\257\371\245\252\035?\221?\302_\267Q\316\360\240?\212\322\020\031\277g\236?\274h\014\366s\020\233?\356G\313\235\214 \243?$\250\352\362{<\241?\362\215\2222\201\277\234?\272W\002[\342C\227?\002\315\225@\254I\237?W\326ut\025\246\230?\017\235\337\212\276\213\236?\216d\351\311\231\336\221?) \366^\230&\200?A\306\037\275\276\364\231?\023\361\376r\336\030\231?\'\226\200\347\007\253\230?@J\250%\200\266\227?[z\240Dlh\235?\005C\333\031\221\375\223?\331+\265\2118U\226?\231o\350\021#\336\245?s\357\315oF\300\232?\010X\014^\201w\214?\330}\323Ed\370\233?\257Ww\017\335\341\202? \317\022\347\251\360\226?\0001a\251\0174\237?"
      }
    }
  }
}
node {
  name: "Const_28"
  op: "Const"
  device: "/device:CPU:0"
  attr {
    key: "_output_shapes"
    value {
      list {
        shape {
          dim {
            size: 39
          }
        }
      }
    }
  }
  attr {
    key: "dtype"
    value {
      type: DT_DOUBLE
    }
  }
  attr {
    key: "value"
    value {
      tensor {
        dtype: DT_DOUBLE
        tensor_shape {
          dim {
            size: 39
          }
        }
        tensor_content: "\264\242\201\360Z\375\217?\256R\317s]\223\214?\240F\305*+8\215?\320\233\373}\244X\215?\356\271\027\275\036I\213??\270\341\326\021\355\227?\3779\246\257\204\243\220?\352K\250\336\023\025\215?&[;\'\347[\214?\326\201\342\262\336\177\231?\242\332\020\215\276\317\210?\313L)R\025\263\216?\030\340V\354L\340\242?\203\026\302\343\201h\220?\014\303R\355\314#\211?fWB\361f\252\206?@upp\310C\226?n\372\203of\344\211?\364:&~\317\246\207?\200\327\260\351~\013\220?$\010\254\362\021\000\220?\330qD!9\250\220?+%\343\356O}\220?l\277c\263T|\211?lK\211$\022\346\236?f\310\356\306@\t\212?\357\366p{E\220\216?\023\324\r\241\214\327\216?s[\276\220k8\223?\264\344Tt7\254\213?\226\004\302@\302\201\221?\223\201y\364?\355\220?.\2203v\032\324\226?\235\265/\243W\374\220?\330\207c3\207\322\212?\354\300f\013\271\370\211?`\\\236M\255\213\223?\224\265.\214\232c\212?\302\256\266\033\232J\215?"
      }
    }
  }
}
node {
  name: "Const_29"
  op: "Const"
  device: "/device:CPU:0"
  attr {
    key: "_output_shapes"
    value {
      list {
        shape {
          dim {
            size: 39
          }
        }
      }
    }
  }
  attr {
    key: "dtype"
    value {
      type: DT_DOUBLE
    }
  }
  attr {
    key: "value"
    value {
      tensor {
        dtype: DT_DOUBLE
        tensor_shape {
          dim {
            size: 39
          }
        }
        tensor_content: "\260\375\326\337\033]h?\266aq\362\354#\215?_\340\207\022\373\265\220?\272>\364\346\020\203t?\207 m\316\365\004\213?\367I\370Jm\363x?\3332\362/4N\217?\003\306\262(\033\322\205?\333W\341\247\014\304p?\232|j\201\356\260s?\305-\274\230\374\310z?\207\241\276Iw\311\220?\003w\216\260(\264\212?&7\257ELA\216?\232!/&D\246\211?\343\201pC\370Zx?\245W\r\267Lr\213?a4l!\002Ot?\232\232\2778\023\221{?\277@\300\036\235\370\221?5\\\217Z\237\226u?=\034\256)\212\236y?\321D\007G\311\216k?\211\\\032\005awx?\251\226\272\221\262\252}?\257\004{4\220Ry?F:\323\315\343\377p?\244\255\3010\370\273r?\216\222\373\203\002@{?\327\361\350x\341\317h?\365Wvz@\020\204?\242?\304\247\250\253{?\314\270\t\224 F\201?\333S\210L\261xy?Q;\201=JKt?\246\3520\003\031\337\207?oM$I\366Go?\350W+t\374ur?\223\376@]\336\223\203?"
      }
    }
  }
}
node {
  name: "Const_30"
  op: "Const"
  device: "/device:CPU:0"
  attr {
    key: "_output_shapes"
    value {
      list {
        shape {
          dim {
            size: 39
          }
        }
      }
    }
  }
  attr {
    key: "dtype"
    value {
      type: DT_DOUBLE
    }
  }
  attr {
    key: "value"
    value {
      tensor {
        dtype: DT_DOUBLE
        tensor_shape {
          dim {
            size: 39
          }
        }
        tensor_content: "\354f\360#\237*\274?\222\031.\303\216l\312?L\357\312\260)\010\305?8x\334\373\241\224\310?\206\234I\251\346\013\301?\344s\327+n\013\311?:\235\364\301k\207\302?4\312\217\371~\261\305?\214\263\216z\243A\262?+\214\376*\252\014\311?u\006\334\340@s\304?\220\224\244\240\266\177\303?8\363\346\365*\370\320?e/:\377\327\241\300?f\224\274\2061\255\303?S\340\252\277\206O\305?GU\341*d\322\326?\234\322\365\362;\366\312?\235\0009D\325=\310?Q\3221|Om\300?9\221\332\255\250\t\304?\355\241\026\210\331U\303?Q\260\323\032\354q\301?\242\315\236a\233\276\305?W\200\306N\366 \307?3\027\345[\201\t\306?#!C\263\253\340\322?M\t\010\2744\215\276?\003\207\241\360\231f\305?\000vo\311\240\273\274?J\224\037\022\313\217\250?\251\340\235\276\033D\301?\277y\335\251>t\312?\374\240\360\032\001 \301?n\317nU\263\260\276?<\320\375q\224H\302?\342APj\231\371\302?\376\204\036\235F\204\275?\227\272\234\260g\237\302?"
      }
    }
  }
}
node {
  name: "Const_31"
  op: "Const"
  device: "/device:CPU:0"
  attr {
    key: "_output_shapes"
    value {
      list {
        shape {
          dim {
            size: 39
          }
        }
      }
    }
  }
  attr {
    key: "dtype"
    value {
      type: DT_DOUBLE
    }
  }
  attr {
    key: "value"
    value {
      tensor {
        dtype: DT_DOUBLE
        tensor_shape {
          dim {
            size: 39
          }
        }
        tensor_content: "2N5\333\322\\\216?\035\262\303G\331\304\217?\177\000\323\312wA\221?\310\274\013\233\225\212\216?A,\345a\244\267\211?\300gC\246\025\030\225?/2\270\022\224\001\213?\260\210xV\202\302\213?\272\304\344,\231$\213?P]\345\235\224*\223?\013\334%U\030y\224?\337@\213\021\240\037\222? \240\033\324B\205\237?(3\261\305\351q\221?\270\013\234\005/\247\213?\250+g\345I\352\214?\302\270w\275qw\226?\307+\007aU[\221?\241\372\223\351\341%\220?\2458\311\245!\340\217?\326\016\334\004y+\220?8\211X\205\324\320\220?\021\373\2676 \374\211?\013\014\372<\211q\216?\211K\3360V\275\236?\301\337\355\t\256\223\216?5\"\371\245d\327\224?\244\033\007\345P\207\213?\242y]\251\024\371\220?\030\3650\305\r!\212?\370Ko\345\230\031\212?v+x\253 \211\216?_\3524\037\203b\225?\324ZQ\212\364e\214?\3206s\257?o\212?J\0360\001Vp\210?\352O\232\333\273\311\221?\035\341\017\010\241\227\212?\270j\206 \220\204\212?"
      }
    }
  }
}
node {
  name: "Const_32"
  op: "Const"
  device: "/device:CPU:0"
  attr {
    key: "_output_shapes"
    value {
      list {
        shape {
          dim {
            size: 39
          }
        }
      }
    }
  }
  attr {
    key: "dtype"
    value {
      type: DT_DOUBLE
    }
  }
  attr {
    key: "value"
    value {
      tensor {
        dtype: DT_DOUBLE
        tensor_shape {
          dim {
            size: 39
          }
        }
        tensor_content: "\276Rg\362\212|\212?\\\3313\347\003`\220?x\256\217`R$\212?\334\017\312\362f\033\220?\326\231\030\327-\006\211?f\004Y\245\230\272\214?\300\3550!,?\211?\023=\323\261K\204\213?oQ\t\277\010\205\206?bC&\017\253X\211?\331At\004\213\025\222?Y\372\020\326b\305\210?+Z\316\346\027\212\220?Y\330\031U\200b\207?\350-\0222/\246\214?\3144\211\326\006\023\214?\307#\317S3\212\221?\r\nE\261X\312\221?\033r\236\357\357n\217?x);\217\241\353\204?\274y\256BO\335\213?D\262\335\361\305\215\212?[\025\212f\315\242\204?\256}qQfG\221?\247i\213i\240\364\223?\225}\250\2657O\213?h\322\026j\"\034\220?\313M\310D\222Y\204?o\202\223\034+\325\212?#G.:$\004\206?W\306!\022\347J\200?B\022\260Fe\245\207?\345\243(\\\333u\211?s\324\0306\016L\206?\274\031)\"\037\274\213?\344}\326\305\345>\207?^\254\305\261\3665\214?8\245\374\216\200b\207?\247\035&\250\344\334\206?"
      }
    }
  }
}
node {
  name: "Const_33"
  op: "Const"
  device: "/device:CPU:0"
  attr {
    key: "_output_shapes"
    value {
      list {
        shape {
          dim {
            size: 39
          }
        }
      }
    }
  }
  attr {
    key: "dtype"
    value {
      type: DT_DOUBLE
    }
  }
  attr {
    key: "value"
    value {
      tensor {
        dtype: DT_DOUBLE
        tensor_shape {
          dim {
            size: 39
          }
        }
        tensor_content: "c\217\031@q\005\304?\2321\301s\024\312\277?\201-)\246\273L\303?lv\247\305\220\031\275?\034\246)\363H\273\277?\3078\\dz\356\303?Mw\214\177\331\022\302?\216uF\026\337\370\300?\221\033(S\366\337\302?\034\016Y\244\364$\307?\3205\321\2252s\301?N\010\330y\224N\304?\302\332Jk\277E\316?\362<L\332\304O\305?\t\352fh\204\254\277?<\254\001^\357\022\276??$\253\032\251\n\302?\271\251\366E\335m\275?\033W>s[\002\277?\014\3433r\261U\305?\003\275c\210\2304\302?\317e\271\321\017(\302?=\330\261\267\3522\301?F\025K\177&\244\276?j\351\351$\235\274\307?\261\246\325\220\363o\275?3\367k\252\236\365\276?\376_\276\375HK\301?|\230X\372\360\275\303?\223Cm\340\304;\301?\2073\204\331\227.\310?\331~\370\277\035\365\302?+\373Q\312T\335\301?_\331\007;<\317\302?\336\270\327\342W\212\300?\233\3250WT@\300?#\200xW\030\242\307?G\'\rf\312\241\301?\037vHVJ/\302?"
      }
    }
  }
}
node {
  name: "Const_34"
  op: "Const"
  device: "/device:CPU:0"
  attr {
    key: "_output_shapes"
    value {
      list {
        shape {
          dim {
            size: 39
          }
        }
      }
    }
  }
  attr {
    key: "dtype"
    value {
      type: DT_DOUBLE
    }
  }
  attr {
    key: "value"
    value {
      tensor {
        dtype: DT_DOUBLE
        tensor_shape {
          dim {
            size: 39
          }
        }
        tensor_content: "\305\342\316\373hy\314?/-\232\363\276\233\302?\377\020\314\026B\370\277?9\324\\\207lp\313?\215\320\'\330\347\327\310?\230\262\307-\370\311\322?\017\007\301\354M\360\314?\177\303\367\261[7\312?\233\253\265\306\n\307\312?8\256\351\222h\255\322?\236\200-=\343\354\302?\345\323\363\317R&\301?\354BS\264\317\262\334?\205\354\373\030\3641\302?/K\226\270\300S\301?%W\307\327\350(\267?\210#\334$\311\246\306?\360H\361\276d\036\271?uO\017\375\325\025\267?\237\270\377\235MW\301?\246\223\362;\377\241\312?\nR\260\266\273\277\313?\262\020I\356\316%\311?\365\321cLd\010\310?o\311\252\274\263c\325?\315\231\235\000\211\255\275?K\225\013^\207\241\301?\3747\340\326+\035\312?\324\343\345h\354q\316?\201\346G\177\214M\306?\030d\217 \264W\312?\320{:d \004\314?\344\035VK\324,\323?\017&*&\002\031\314?bQ\030\317\263\253\312?44\231\251#\266\306?\363\2729\220/\300\320?f\323\024U\201\343\311?\355\243T\013\034\317\311?"
      }
    }
  }
}
node {
  name: "Const_35"
  op: "Const"
  device: "/device:CPU:0"
  attr {
    key: "_output_shapes"
    value {
      list {
        shape {
          dim {
            size: 39
          }
        }
      }
    }
  }
  attr {
    key: "dtype"
    value {
      type: DT_DOUBLE
    }
  }
  attr {
    key: "value"
    value {
      tensor {
        dtype: DT_DOUBLE
        tensor_shape {
          dim {
            size: 39
          }
        }
        tensor_content: "\177\246\374\366\36705?A\271\021f)\214L?J@M\367\350SG?\302\253K. \020G?\331\010\0300\205*I?\032B\207\237\023\270C?\351@\332\346}m@?\311Q\325q\272]I?\271s\002\246\266\3477?\224!%\301\031\3138?\030\367r\235\314^U?\247\026\225\033R\026H?]\302\235\327\027\035G?\203\325z\361|pE?-\316]\2337\222I?\013>\257B\016\014H?k^|ni\346H?\271\002\272\241\237\014Q?\346\026#\307#\275J?#x pSME?\036\213\003z~c@?\324\003\242\352\017\n>?\205\207Gz\252\3208?\266\365Y\323/\344B?\327Y\216:\250&T?6\254\340FF\211I?\323\202l/F8Q?\200\237\371\362w\213@?O=\303\002\322\001@?\211o\204q\244\352A?\032\210\223$\320\201,?\t|\273v\232\220B?\336\200x\341\342~R?\344\235]\014\0017C?\220\335\202\366RV9?i\353)\323\330\213H?\010`G\363\242+5?-I\215\345{\325<?E1\264\233\031`F?"
      }
    }
  }
}
node {
  name: "Const_36"
  op: "Const"
  device: "/device:CPU:0"
  attr {
    key: "_output_shapes"
    value {
      list {
        shape {
          dim {
            size: 39
          }
        }
      }
    }
  }
  attr {
    key: "dtype"
    value {
      type: DT_DOUBLE
    }
  }
  attr {
    key: "value"
    value {
      tensor {
        dtype: DT_DOUBLE
        tensor_shape {
          dim {
            size: 39
          }
        }
        tensor_content: "8\273\3416\254\004\242?!xq`}\226\225?\334\334\354\277\331$\223?\342\212\224\261m\217\235?\253\352!`OY\240?\'\225\037\250\222o\246?\227\316Qf0B\243?\224;V^\261\326\240?\356y\314\311\276\274\237?\317\206u\311<\245\246?\0320\257\316(\035\221?G\330k\373b\303\222?\226\247q\223\2372\273?\"s\264\207k\001\230?\224<6\355&Z\226?}\032\206=\304\225\223?\200\243\333E,\342\242?\277\003\213\345\240\230\224?X\252\206\255\r\226\222?\214.\306u\345\t\225?\033\024\035\204\256\262\240?\260g\341\375\266\354\241?A\233\337\010\213\000\243?v\234\224\206\305\335\231?\010\222^HI\010\253?\331\234}/\211\374\223?e\334\363t5n\230?\353\214\027\321\337#\242?\222J\277Wk\264\244?u&\353%\234F\234?2\334M9\306\340\243?\007\266X\217\330Z\245?\214\025\335+\315\335\254?\002\251\017\333\2026\245?y\372\255\221\276\004\235?D\221\210\031)\027\236?{?\324J\203\253\247?]5\264\362\003?\231?\205\373\036)\340E\231?"
      }
    }
  }
}
node {
  name: "Const_37"
  op: "Const"
  device: "/device:CPU:0"
  attr {
    key: "_output_shapes"
    value {
      list {
        shape {
          dim {
            size: 39
          }
        }
      }
    }
  }
  attr {
    key: "dtype"
    value {
      type: DT_DOUBLE
    }
  }
  attr {
    key: "value"
    value {
      tensor {
        dtype: DT_DOUBLE
        tensor_shape {
          dim {
            size: 39
          }
        }
        tensor_content: "\214e\201\306#\r\343?\261\032\264\206\022|\346?\256{\262\327\010\252\342?\273\322\246\025\266\230\351? {\346D_\233\340?\217\264\373\347\310\213\345?\335\351Y\014#g\335?\244\376\313h\026\337\345?\275\200\310(\344\267\340?>\r+pMA\350?\306\337\342D\341\370\342?\316\335\252\210\177\002\337?\030/%H\367\203\354?\332.-ED\261\332?\225\310d\"\215p\336?V\014\304\030\203\014\337?\237\207\031{\240\n\353?\303\"Q\200M#\342?9a\025\270\206>\340?\346y\200-\270N\331?;\377\311\0046\030\342?F/u0\3204\347?\356x\300r%\253\334?\203u\266\225\031R\350?\034}R\203QL\357?\274$P\313\207=\340?\364\020{c\221\301\347?\264\336\347\374\265\244\337?,\231\251q\372t\343?\335\014\310\224v\031\336?>\361\201\325\374\343\330?\007\336\273u()\344?\016zHG44\352?\004d\302;\222\365\341?\276\372\206\275\226i\342?\224_k\002\0173\337?\304\033e\001\275\221\357?\240\352\025\210\032\350\337?\373\037\'C\226\352\337?"
      }
    }
  }
}
node {
  name: "Const_38"
  op: "Const"
  device: "/device:CPU:0"
  attr {
    key: "_output_shapes"
    value {
      list {
        shape {
          dim {
            size: 39
          }
        }
      }
    }
  }
  attr {
    key: "dtype"
    value {
      type: DT_DOUBLE
    }
  }
  attr {
    key: "value"
    value {
      tensor {
        dtype: DT_DOUBLE
        tensor_shape {
          dim {
            size: 39
          }
        }
        tensor_content: "x\261\023o!\247\323?\303u)\257\213[\327?&\226\261t\301\336\321?\226\205\345!8\217\325?4\222\342*H)\322?\021\243U\023\324i\332?x\344\276&\336\246\322?T$0\201\352.\324?\330\307`\231@e\324?\363\304\324*\r\355\326?\206#2O\355D\325?U\320[\375L<\322?\224\275\204\356\331D\341?0\2743\0021\217\320?\353\305u\023w\014\321?t\335T_\030\305\320?\230\314*U\203\372\327?_*\277\022\244\337\325?\344\260(n\255\033\322?\370?Mi2\217\320?\036\300@\032|v\322?\005\316\244\234b\240\325?~\222\265\324\311\201\321?k\020GB\205\032\325?\005\316\236\273\276\214\341?\243\r\233\242>\307\322?X\360\000\272R\302\325?\310\257\322\343\322,\324?$\367\r\374\254\362\325?\357\361\250\341y\303\321?\346\0374\247\316\354\315?#4v7U\301\323?.\013\014\271\326\335\330?i\024k#w\315\322?\222\245\345W\237]\323?\324\020\244W_F\320?\303\270\362y;\343\335?\201t\306\n\004z\320?g\265#oI\305\320?"
      }
    }
  }
}
node {
  name: "Const_39"
  op: "Const"
  device: "/device:CPU:0"
  attr {
    key: "_output_shapes"
    value {
      list {
        shape {
          dim {
            size: 39
          }
        }
      }
    }
  }
  attr {
    key: "dtype"
    value {
      type: DT_DOUBLE
    }
  }
  attr {
    key: "value"
    value {
      tensor {
        dtype: DT_DOUBLE
        tensor_shape {
          dim {
            size: 39
          }
        }
        tensor_content: "\020\344\275\356\327\375\321?\311\253\2236\271\223\325?\350\255`\260\264\010\311?\371\025\227EZ\033\321?\000 \263|\306\030\313?\004\235\311FbY\325?Y\264\232\201\217\275\320?\205\005\243\331\016\310\317?B\211\362@=\261\321?T\"-\216Ir\323?0]\266&_\303\320?9\202\354\325v\226\311?H\033\230\263\307\213\333?8g\264g\006\010\313?\207\300\225P|\360\317?\232\210\234\255\3266\315?\025\'\02280\343\321?\332\341\211\245\226\020\320?\226b\357\203\t\250\313?\372F\021\224\261&\307?h\315\334\000E\031\322?\274\254\272\322\324\352\320?\356\030RU\250\004\313?/\270Ue\342\373\320?Vt@\326;\226\337?\005\224\003q^U\320?\310\234n\243\014\230\322?`\263\013\037\277\026\320?H\256\250>\036\211\321?\021e\t[\206X\312?\005\252\334P\025\216\311?\252\334\267\233\002<\317?YL#Cn\215\320?\220\022\353\243_\032\316?\r\225\311\311/\305\320?3\271\355U\333\210\307?\202PQdP\301\340?{GV\006\000=\312?Q\246\305\031\373\240\312?"
      }
    }
  }
}
node {
  name: "Const_40"
  op: "Const"
  device: "/device:CPU:0"
  attr {
    key: "_output_shapes"
    value {
      list {
        shape {
          dim {
            size: 39
          }
        }
      }
    }
  }
  attr {
    key: "dtype"
    value {
      type: DT_DOUBLE
    }
  }
  attr {
    key: "value"
    value {
      tensor {
        dtype: DT_DOUBLE
        tensor_shape {
          dim {
            size: 39
          }
        }
        tensor_content: "\354P\266\347\266\210\310?\364\366\276c\300i\307?T\313\022\300\366\027\310?o\301,\213\241\321\315?\034z\320\022\367\272\311?F\367\255m\000\302\320?[\272=\342\271D\312?F\021\246\224\002U\313?\031-\264\nu\221\310?P\031&\323\375~\310?\037l\255Tu\363\316?\216\004D\033\262g\307?/x\335\276^q\324?s\264zj\354f\304?\250|^\356\177\352\310?#\261\032\255\244$\307?\354\301 \250\304g\320?\2444V=\230\346\312?\204\275\315\274e\216\310?\006\310\031}\361P\304?\200\325\226\026\034\241\313?\270\232\207\205?A\312?\344\004\301\036x\341\306?d\373=#\230\302\312?\216\t\004\251^`\317?\320lo=\366\340\312?\347\211\3220&\r\320?\250\340\024\321\010o\307?\246\0073.\323E\315?\036\314\255\253\240\342\305?\020\237\213\203\234\354\302?p\307\003d\022Q\313?\221\2712\234V|\321?\340\002+\253\327d\311?\271\017\274K\327a\311?\362b(\323\346s\310?\377\305n\347R\214\312?,/s\023\030\303\306?\232\244\365\032;b\304?"
      }
    }
  }
}
node {
  name: "Const_41"
  op: "Const"
  device: "/device:CPU:0"
  attr {
    key: "_output_shapes"
    value {
      list {
        shape {
          dim {
            size: 39
          }
        }
      }
    }
  }
  attr {
    key: "dtype"
    value {
      type: DT_DOUBLE
    }
  }
  attr {
    key: "value"
    value {
      tensor {
        dtype: DT_DOUBLE
        tensor_shape {
          dim {
            size: 39
          }
        }
        tensor_content: "\304z\3033\326\302\310?\253\242H\356\016j\313?\032S!\344\030\242\306?\024b\353\2628\370\314?{J\014GQs\312?\232:w\255\037\307\317?(|/|\361\267\313?\026\037\322p\017\t\311?\336o\307\007<2\310?\n\022\000\3064\003\320?\211\351\252\354\225\243\315?\007\010\021>W\014\311?$\030i\'\223\334\322?\360[\211\273\335|\307?Y\202\363\3072_\311?}\261\3619\273\016\310?\313\376\316i5O\315?\375\325$S\036\212\311?\237\214\333\257\352\313\307?\272Q\277\177\221\230\304?X\357z\374\265\\\312?M^\244\262dj\311?b\004;\214\037\036\307?\244\273\325\263\255\002\314?\024\376\r+jX\324?|z\226\207\220\222\312?ja\216,\033\254\320?\037\206]\345\2120\310?QU\203\261\340~\312?\230\"1\215\374\317\306?\r\031S\364\023\017\310?\356.el$\236\312?\030\305\345%i\317\324?,9\226\201\220,\315?S\3426Y\335\237\313?\227\302\327\237\212)\310?\366\341&x\220:\321?+~\322\306\327\031\306?\227\324\2147\274\007\307?"
      }
    }
  }
}
node {
  name: "Const_42"
  op: "Const"
  device: "/device:CPU:0"
  attr {
    key: "_output_shapes"
    value {
      list {
        shape {
          dim {
            size: 39
          }
        }
      }
    }
  }
  attr {
    key: "dtype"
    value {
      type: DT_DOUBLE
    }
  }
  attr {
    key: "value"
    value {
      tensor {
        dtype: DT_DOUBLE
        tensor_shape {
          dim {
            size: 39
          }
        }
        tensor_content: "z\020&\\)U\310?\027\"$\177\213C\311?\340\333:\370m\372\306?\377|r\352\257\251\315?\247\272\325@y?\311?\340\300,\377\357\250\321?\010\365\375\314!\017\313?\005\221\227/\021\242\310?\321n\251\242\351\261\310?\322\257;j\345\243\304?,l\227K*v\320? \033]\030kt\310?\250\r#p;>\320?\026P\306\367MJ\305?-\334\231\254\363\223\307?\204\027\200\254)\270\306?C\031I`2e\312?\350\305\032E\304\241\311?\343^\265\224C\207\306?\335\312Q\347\201=\305?j\276+\017\227\021\311?\275\017\215(\026\367\310?\266{[\342\363\014\310?\030xj\356q(\312?\260\255D\2018\340\320?0\rq\300\311\300\306?i\357\272\204\2346\316?\342\374R\245\364\206\311?6`\002`,\310\311?\233\272\251N\355\321\307?\022|B2\312k\304?\372\305n\354\202\326\305?%\3720\261\345=\321?\322\2528o\332\276\306?\343D4&K\210\312?\034\355\3360\240\037\311?\244\363\222\334\220\302\314?m>\366)\302\340\306?\326w\tDb\241\310?"
      }
    }
  }
}
node {
  name: "Const_43"
  op: "Const"
  device: "/device:CPU:0"
  attr {
    key: "_output_shapes"
    value {
      list {
        shape {
          dim {
            size: 39
          }
        }
      }
    }
  }
  attr {
    key: "dtype"
    value {
      type: DT_DOUBLE
    }
  }
  attr {
    key: "value"
    value {
      tensor {
        dtype: DT_DOUBLE
        tensor_shape {
          dim {
            size: 39
          }
        }
        tensor_content: "\347\236v\240uc\307?B\016\224\351\270o\306?{\260\212\341M\211\306?}\013\300\325\242\226\313?\221`\276\250\317\232\311?Mt\264\320\346\035\315?\357\346\350\005B`\307?6\2046\217\261\324\310?\377\376\003U`,\307?\346U\225f#&\301?\224>\3731\355\300\321?\030\034.\223`\357\307?\236\267s\010w!\320?\324#\210L\025\314\307?\007\030\333\354\375\017\310?x2\313.\202\311\305?\273d\2618Z\240\310?$\271\017\372\353\n\313?\325!\001\257\353\t\305?S\037\305i\362@\307?\202\224\222U|\367\311?\177\002L|\315\317\307?\254\210\270\265\033R\306?\250g\300m#\331\313?r\312\275#\231X\320?o\215G\220\273\240\307?\221\250L^\264Z\310?t\362\n\366\217\276\307?\251K\214\261UP\306?\344\020\324\365\362\270\307?0\034\211\370\230F\303?\362=\242\317\252\324\310?e%\311<-\030\322?^\010d\211\215G\310?]\315cu\336|\312?a\317(0 \224\310?a\351\030 4Y\321?\'^\034\3157\332\306?u\300\226\035&(\311?"
      }
    }
  }
}
node {
  name: "Const_44"
  op: "Const"
  device: "/device:CPU:0"
  attr {
    key: "_output_shapes"
    value {
      list {
        shape {
          dim {
            size: 39
          }
        }
      }
    }
  }
  attr {
    key: "dtype"
    value {
      type: DT_DOUBLE
    }
  }
  attr {
    key: "value"
    value {
      tensor {
        dtype: DT_DOUBLE
        tensor_shape {
          dim {
            size: 39
          }
        }
        tensor_content: "\350v\323\373L\346\305?\253\326++_m\306?VCd\320K\216\311?\305N\003\027\376\312\302?8\257\255\246M\017\304?\2315Q\325\311\n\306?\2754\0203\003\354\304?\307x\304\3224D\304?F\204}2\211\235\305?Jn\270\332\016M\311?\217}\366\320\013#\307?\243\376\364\262\034\027\312?\243V\262\372\244\022\313?Cl)\304i\000\313?\244\255\202\347\270_\305?\250\017x\010W1\306?\004w\354\215N\000\310?pv\312\314Z\257\305?f\326\202 \240]\306?HvQ\256\237\026\312?\343n<\2555\221\306?w\342o\376\024\233\306?\242S\222\350\263\360\305?k,rV\352+\303?\024gm\3645(\310?8\345\2238\204Q\305?Z\031\024\267\206\202\306?\223\244\036~\0033\305?\312&\311\214\307\005\307?:\314\013\256G|\305?\301\316\356m\377`\310?\307zFi\243S\306?\372\246\3437\210\371\305?\274\341d\315\262\275\305?b$\327\356;H\304?1\200Hy\241\001\305?\177\032M\316\271\000\305?i+\360I7P\305?\226$G\341\356\336\305?"
      }
    }
  }
}
node {
  name: "Const_45"
  op: "Const"
  device: "/device:CPU:0"
  attr {
    key: "_output_shapes"
    value {
      list {
        shape {
          dim {
            size: 39
          }
        }
      }
    }
  }
  attr {
    key: "dtype"
    value {
      type: DT_DOUBLE
    }
  }
  attr {
    key: "value"
    value {
      tensor {
        dtype: DT_DOUBLE
        tensor_shape {
          dim {
            size: 39
          }
        }
        tensor_content: "$\344\212\301\324q\306?\251G\323\002\032\306\307?o_\235\322b\373\307?\262:\r\275\240<\316?@j\324\371wK\310?\342\2727R\035\354\313?.\025\300\304o\273\306?\215\275Y#1q\310?\312\240!\377\331\264\305?t\333\n\335l\314\305?h\016Yp\023F\320?\322\'\333/_\300\312?\273\343\246\251\211!\320?\305\017f\242=\225\306?\246\236\331\031\254\211\310?G\237_6\300t\310?f6\330EZ\354\313?\361\343\313\331\025\007\313?\363\0346\272\216\344\306?&\005\000Z \373\307?\320*+\014\327\340\313?rz\361gR\347\307?\331#\360L-\321\310?\350\271!\207\246\n\311?\316\351\016\202\230Q\320?\310\217j\367\352\221\311? \360\2406\271`\313?9\371\311c\005\n\311?@\361o\303\367\027\306?\242\333\361\305\363U\307?-:\360\'4q\302?-\016\360\370\005n\310?\357\350N`\221\216\322?=*/\353\312\363\307?\026\010\263\243D\242\313?\034\221\245\232\2023\310?\013?\270~=\270\312?\231\221\272\267;\335\306?\033\345\311\300\212\371\312?"
      }
    }
  }
}
node {
  name: "Const_46"
  op: "Const"
  device: "/device:CPU:0"
  attr {
    key: "_output_shapes"
    value {
      list {
        shape {
          dim {
            size: 39
          }
        }
      }
    }
  }
  attr {
    key: "dtype"
    value {
      type: DT_DOUBLE
    }
  }
  attr {
    key: "value"
    value {
      tensor {
        dtype: DT_DOUBLE
        tensor_shape {
          dim {
            size: 39
          }
        }
        tensor_content: "V\017~\220[\225\307?\021\345\372\037\005X\305?\365d\r\216|z\306?-\367Tc\271\313\312?6]W\006f;\307?\347\206\016\216b!\314?\265\205c}L\335\305?Wx\240=T\324\306?\246\341\201\274f{\305?d\263ta\222H\301?Z\211\224\034.\200\320?\234s\350E\310\236\311?\274=!\032\230\255\322?\216(\354\362gZ\307?\253\334\032>\232\037\306?\253\276g\024\301\317\306?kT.\367\333\023\312?\266\377\241\264\224\000\314?\300\230\245\315[\265\310?\006\0031\001\232\004\310?\024\254p\240\363 \312?\022\322G@\252\335\306?\340\005\231\372@\362\307?\001\314\371t#\373\310?\242|\256\332\341\326\315?\246o\311\003\024\257\310?\030\340\357\233v\235\312?\361ht\005\247\254\310?\315\257\355\321L\362\305?\370\002\013)F\274\305?\256\207\253M\270\225\302?V\342x\265\021\271\310?J0\303\026j\254\324?\253U\365zs\355\310?\221\307ND\373\355\315??\233[C\362\216\311?\301\245\335\256\"\260\306?\024@\031\030\"\354\304?\250\227\246G\326a\307?"
      }
    }
  }
}
node {
  name: "Const_47"
  op: "Const"
  device: "/device:CPU:0"
  attr {
    key: "_output_shapes"
    value {
      list {
        shape {
          dim {
            size: 39
          }
        }
      }
    }
  }
  attr {
    key: "dtype"
    value {
      type: DT_DOUBLE
    }
  }
  attr {
    key: "value"
    value {
      tensor {
        dtype: DT_DOUBLE
        tensor_shape {
          dim {
            size: 39
          }
        }
        tensor_content: "\300\362v\267\302\356\304?\235](,\320\\\305?\272\211\2440\023\017\310?\255I\2066{\244\312?k\023\310\032\253\212\310?3\013\350\353\016\326\307?H\024\"\343\350z\306?\002\"q\365\375\265\310?5\'\310\215\016S\306?W\224\355\254K8\302?\2760\356I\022\034\320?\302.\021\246\351\364\307?\236^@\203\324<\322?\200\231_\003\2626\306?S\033.70\211\306?\376\361kX\210]\305?V=vCJ\362\304?\356\320\020\232\355\021\311?\231\'\340\014\356\300\304?\240j\306\323K\242\307?\247D\211\322\241M\307?t#L\340\372\214\305?V\020+\334Y\307\305?\037\330`\273\375:\311?\001\351K\335,\243\320?\334C\310\r\2031\307?\374\230\336\262\315\251\310?\221\3239\377\267;\311?\344\201\377\265\313\302\304?8\243U\312\223\"\306?\267r\224s\000Z\302?\022S\300\r\344\215\310?g\317\356e\007B\321?\203\325z?\023n\307?\014\213\340\212\256\370\316?|%2\001Yk\310?\205-Eh\223\353\304?\216\323Of\214\321\307?\321r\005P\036\017\314?"
      }
    }
  }
}
node {
  name: "Const_48"
  op: "Const"
  device: "/device:CPU:0"
  attr {
    key: "_output_shapes"
    value {
      list {
        shape {
          dim {
            size: 39
          }
        }
      }
    }
  }
  attr {
    key: "dtype"
    value {
      type: DT_DOUBLE
    }
  }
  attr {
    key: "value"
    value {
      tensor {
        dtype: DT_DOUBLE
        tensor_shape {
          dim {
            size: 39
          }
        }
        tensor_content: "X\'A\024\302\247\305?\237\340\331\363\352Q\305?\342\253\350\266\243\207\306?\242\375\036\3672*\312?\356\256=N\250L\312?\2537\361v\313\210\312?=\027\334\316BA\305?\311|\306\342\232\017\307?g0d\334|\231\305?\340|\'\3622\273\302?\002\366>\353+p\317?\220i\277\3379m\307?=\205\317\2644T\320?0\217\013\206\377Z\306?t\r\277\305\270\"\306?\301Gk\376\342\266\304?<R\242\341\217\352\306?\356\341\321\217\342X\310?B!\034\253-\377\306?w\360\276J\270U\306?\000Y\013\355\326\233\314?\234\254]xkc\306?~\243\253\357\321\303\306?}\351\270\013R\330\307?f\004\235\200\016&\320?(\263\304\306\256\352\305?\351f)\027* \315?G\t[&r]\307?@\235<(\342\024\305?\3146\212\330\247\354\305?\200H\227r\037[\302?\277d\353\361\364s\307?h\3737\377\002]\320?`\256}\3641\007\305?\246&\013#v\352\312?\224\2574\216\250\177\310?\023\014\'\321\366\243\302?\214\'/-\256E\306?e\261\246\203\326\316\310?"
      }
    }
  }
}
node {
  name: "Const_49"
  op: "Const"
  device: "/device:CPU:0"
  attr {
    key: "_output_shapes"
    value {
      list {
        shape {
          dim {
            size: 39
          }
        }
      }
    }
  }
  attr {
    key: "dtype"
    value {
      type: DT_DOUBLE
    }
  }
  attr {
    key: "value"
    value {
      tensor {
        dtype: DT_DOUBLE
        tensor_shape {
          dim {
            size: 39
          }
        }
        tensor_content: "~T\366 \210t\302?\265vzs\366&\305?\272\252\026_\023\244\304?j\2561h\036\317\306?\031\274\252.\000\006\307?:\032\245ja\240\306?\003\202K\215\267\037\303?\023n\250@1\215\303?\314\233\267\270\203\356\305?S_e\202\265K\300?\365\205l\215W\017\315?\254\274\216\254\320H\304?F\336V\370\206&\320?e\020F3m\370\305?\000\222\367\027(]\305?\351\364\324\223\314\375\301?Q\224\261\375^\335\302?v\372\\\313$\005\306?\331\256\210]Y)\302?\203\345/\350]\034\304?\317\217LI)L\306?^\031\004\322j\315\302?f:\350\357\326\236\302?\237\253\323\210\366\237\306?\233-\260n\320\261\316?\363\335xC\020Z\305?v\005g%\024\375\307?5\325\315N\364L\302?&\362^\3074\005\303?\223:@\356\364\255\302?\263q\356^_0\301?2\241W~\366\307\304?\325\210\255G !\316?\215{\341\222\213:\304?\241\340\302\tt&\311?2\\\321s\310\026\304?\005\003\027\337\252\375\302?\270*v\262\276G\302?Gb\344|\340\007\305?"
      }
    }
  }
}
node {
  name: "Const_50"
  op: "Const"
  device: "/device:CPU:0"
  attr {
    key: "_output_shapes"
    value {
      list {
        shape {
          dim {
            size: 39
          }
        }
      }
    }
  }
  attr {
    key: "dtype"
    value {
      type: DT_DOUBLE
    }
  }
  attr {
    key: "value"
    value {
      tensor {
        dtype: DT_DOUBLE
        tensor_shape {
          dim {
            size: 39
          }
        }
        tensor_content: "\366\024\212IW\340\302?\273\321\250\\\241\315\302?\373\272\t\313r\213\302?;Gg\265\324\003\305?\233\257:\331\310\377\303?\263\325\370\230;-\304?\342\235\370\347\254f\301??\322t\303\302\276\302?\352\213\215\202\203\323\302?\260a\3127`\313\273?X\376\017\364\325`\306?g\266\303Ry\257\301?\025\316\225\251\321\240\312?\362\257\366\225\035\036\303?h\235\211K\247\317\302?\356W\017\263\2755\301?C\027\320\275x\231\303?4p.\023\354\204\303?\204f\266\000\331\366\301?v\004\'\305\270\352\300?[\215\211&(\256\302?kg4>\310|\302?\002\357I\321\002\006\300?\226\001\256\364\203\016\306?m\345\013\374\310%\312?Z\001\350\025q\314\302?\326\273\240\342m\241\307?\031\265\374gv\215\302?m\236CX\3536\301?S/\177\273\315\210\300?{\004\235`*\241\276?e\276l\332\256|\304?9\257\003\'\366Y\311?\013T\235,\361\211\301?\314\023 \000\261\247\305?\275U.F\n\251\301?\306\261\254\335\241\366\302?\215\334\324j\331>\302?2\371\034\344\037\221\303?"
      }
    }
  }
}
node {
  name: "Const_51"
  op: "Const"
  device: "/device:CPU:0"
  attr {
    key: "_output_shapes"
    value {
      list {
        shape {
          dim {
            size: 39
          }
        }
      }
    }
  }
  attr {
    key: "dtype"
    value {
      type: DT_DOUBLE
    }
  }
  attr {
    key: "value"
    value {
      tensor {
        dtype: DT_DOUBLE
        tensor_shape {
          dim {
            size: 39
          }
        }
        tensor_content: "\327\303\362\277a\377\222?(w\242\335i\360\254?\202x\364\375\271\031\261?\300C\245\213\216\326\240?\2406\213#\363%\241?\341H\016\235\223\'\206?D\243\220\247\357\302\246?*\275\207\272w\035\241?~\014X\221\036\217\217?\016\\\355A\023Np?m\027\230\204~\033\240?Tx\245\266\2462\265?\376\335\020\0252\347\217?\274\207B\253\220\301\212?\221\324\354B\205N\223?l\014\251>\260qq?g\005#?\006_t?qQ;\306\335\006~?l\211e\341\344~\223?\370\370vf0q\250?r\352\030m\211f\260?--\014\200Lb\250?\317<\377\th\331\260?\034{\035J\310\257\210?\037\n\036)\304\360u?\204D\014C\007\362\207?\370\224_5\321\272\212?\323\030\275Q\364\034\253?,t\365+=\375\256?>\\S\210\020\371\241?(\243\004\357<?}?gTv\354\021\323\202?\314\021\205\330\266\374u?\261\222\237\373\033My?T4\214\327\304?\212?Z\317\251W\351T\244?A\251/\360\307c\205?]\227\000:\335\177\211?\275D\034\024\264\237\211?"
      }
    }
  }
}
node {
  name: "Const_52"
  op: "Const"
  device: "/device:CPU:0"
  attr {
    key: "_output_shapes"
    value {
      list {
        shape {
          dim {
            size: 39
          }
        }
      }
    }
  }
  attr {
    key: "dtype"
    value {
      type: DT_DOUBLE
    }
  }
  attr {
    key: "value"
    value {
      tensor {
        dtype: DT_DOUBLE
        tensor_shape {
          dim {
            size: 39
          }
        }
        tensor_content: "\\\256\321\223!W\203?\364\2706\352:\232\210?]Y\030\321!\241\220?u\312O\255\217\264\227?<\352B\356\352\233\224?V\024\025\300H\005\237?\310\377\276\211\201{\204?\351\205\021\240\265\007\250?\251\204VNI!\200?0\242C\346*\200\205?b\245=\314\245\251\214?\327\3670XAO\221?K-j\223zy\211?\352\260r\256\243\334\234?\235\007QD\277\034\243?}\330\372\232w2\241?\231\275\3476\315\304\232?a\313\245\032d\371\244?\251\372\271\333s\206\254?L\341h\330\327U\210?\261U\233\3134\363\205?\372\320\306\302\303t\205?\207\360\273\311[\252\205?\304q\364\327\013\305\223?\360\203\353\330\215,t?Y\377\225B?\272\241?H\354\010\336G\037\254?\276tY0\222>w?\304\032\005;\304\306\223? \312\"p\\\217\177?\241@\324\211\002>\222?\001~t&\223\264\240?\336\301~\265x\017\214?@\366\221A\364\355\222?\246\234\353\315?\275e?\251M\2250\355\253\210?\302f!\017\340 n?]\032\341\312\334\001v?g\016zA<m\216?"
      }
    }
  }
}
node {
  name: "Const_53"
  op: "Const"
  device: "/device:CPU:0"
  attr {
    key: "_output_shapes"
    value {
      list {
        shape {
          dim {
            size: 39
          }
        }
      }
    }
  }
  attr {
    key: "dtype"
    value {
      type: DT_DOUBLE
    }
  }
  attr {
    key: "value"
    value {
      tensor {
        dtype: DT_DOUBLE
        tensor_shape {
          dim {
            size: 39
          }
        }
        tensor_content: "}\325Dx\037k\204?\256!\236|\314w\247?\340\373:\2375\205\240? \304m\305\300\245\213?J\341b\207\240\202\247?B*\236\322\222\361\200?\240\357\037\355\252r\215?\210\214,\026y\034\213?\352\227\002u\004|\202?\3726\355\263z!y?wf\'\272\260l\233?#l\317\361\2157\225?\255\216E\354gw\210?s7\340A\257\351\221?ZH\351\025\243K\223?\373\004i\254%\016\225? \203,\'~\276\240?!\201\200n\251\311\237?\360d\305\334=x\225?\315\306\300\306\312\215\221?\321\314MX\2702\251?\224\266\302\260\324\234\220?\300\323w\352\372.\241?w\332\204\025\226\302\220?\3532rU-\345q?cEz\311\351&\240?P\260\353|q\303\230?\232\262\246\344\363\335\210?\251O\352\274\275\235\211?5<\214\021\320\341\240?\231f\022\277\324\267\206?\302\243\207 \372W\227?+)$\330\031\014\220?\002\273!\267\214\372\210?\364\3230x\021\026y?\033\273\263\001tk\253?i\202K\354G\307\200?\334a\005\364$\240\237?\017\310\335Y\002*\250?"
      }
    }
  }
}
node {
  name: "Const_54"
  op: "Const"
  device: "/device:CPU:0"
  attr {
    key: "_output_shapes"
    value {
      list {
        shape {
          dim {
            size: 39
          }
        }
      }
    }
  }
  attr {
    key: "dtype"
    value {
      type: DT_DOUBLE
    }
  }
  attr {
    key: "value"
    value {
      tensor {
        dtype: DT_DOUBLE
        tensor_shape {
          dim {
            size: 39
          }
        }
        tensor_content: "BN\361j\376\245\211?Yo\235t!{s?(lPZ\245\001\215?\207L=\020\263\013\214?<\301a\235\301L\207?\003\312\250/F\203\225?Gb\200\341\363a\226?\321\264\020V{U\221?-@\014$>\275|?\346\212o\210c\357y?a)\276\342\036\251\203?\343\'\215\200\nG\223?\rD\363\223\220~\221?9\234\005@\036\222\250?bL(\263\215\227\242?u1/\202\206\010\243?Z\314\t\217)]\225?\260W\305_\257\214\233?\224y\261xy\265\233?\352\036\356\262\213\334\226?\274\327\366\311~Pr?\255t\255\223\261\336u?C\024\351V\010\017s?\242\350\005\002\224|\225?\016\222\327\356\013\274p?r\305\324\017K\237\213?\r2\351gY\023\214?UPR\211\324@\202?\3123H\321!:\200?u\257\206\332\0043j?q06n\215$\236?\216\367#%\360A\220?\211\260\2003Fn\212?\255`\2516I\317\211?\206\357\375\356H~r?\246$t\365\340\\t?\363\227\000\236\270\331Q?\202\254md\267\034\205?@\227\272\034oY\212?"
      }
    }
  }
}
node {
  name: "Const_55"
  op: "Const"
  device: "/device:CPU:0"
  attr {
    key: "_output_shapes"
    value {
      list {
        shape {
          dim {
            size: 39
          }
        }
      }
    }
  }
  attr {
    key: "dtype"
    value {
      type: DT_DOUBLE
    }
  }
  attr {
    key: "value"
    value {
      tensor {
        dtype: DT_DOUBLE
        tensor_shape {
          dim {
            size: 39
          }
        }
        tensor_content: "\025.\030O\030\377\347?\007\325q\242Z\376\320?G\214%26&\323?o\303\250\302\354~\333?\002\343A\223O\271\333?\365\215\2230\000b\350?\343\330\376\3614\327\345?\357\027@\217(\213\340?]\001;\207\350P\344?\275\241g\241\267\217\346?\313\2144El\206\320?S4\244z\332E\324?\027P\216i\310\'\361?S\252$J\032q\326?\354\314\2425 #\327?\364\345Zg \357\306?\340X,d,\264\321?%%\270\374R\345\310?\276\213I;\366\376\317?\203\013\311\177\224\243\334?\270(\323\3558\273\341?\234o\230\036\336\347\340?t7d\032\014\252\340?e\361(U\273\251\335?>\307\272\212b\231\353?\314\372\355\227\305p\315?\363.\3230X5\314?\014x$9b#\342?\357\354\216\213~2\345?\370\311\213:\033\004\341?B\333\003\266\233\004\357?~\256\237\233\022\005\345?t`A\224\273u\341?\251\330\352\347\336\331\344?\246\216J\204\374\030\343?\301\203k\256\0320\333?Z\037\320\352\376\207\361?\256p\2345D{\340?\262 \352B\313W\336?"
      }
    }
  }
}
node {
  name: "Const_56"
  op: "Const"
  device: "/device:CPU:0"
  attr {
    key: "_output_shapes"
    value {
      list {
        shape {
          dim {
            size: 39
          }
        }
      }
    }
  }
  attr {
    key: "dtype"
    value {
      type: DT_DOUBLE
    }
  }
  attr {
    key: "value"
    value {
      tensor {
        dtype: DT_DOUBLE
        tensor_shape {
          dim {
            size: 39
          }
        }
        tensor_content: "|6\233\357M\023\177?,\"\315?\307=x?\\\261\206\217\317\224\217?\031\337J^\r\006}?Pk_\307\340\207p?\201\374\327\346\001u\224?\2334G\r#5u?\037azdb%\211?\241\002\332\245]\240y?\244\317\344\305J\273u?\004\357p\230\3359\205?uw$}tcj?\260\323\020\035\nYq?\343\252\242c\033\255p?C\305\275-X\270f?\355\250\324|\364\271\215?\315Q\036\033*\216\271?\275\342\324ri*\242?\350mFX\273\323\222?\205\000\261#A\214p?f\336\242\246)\335\203?Q\312\252\023\036\355\221?\222\310LwuZ\226?\241$\212\'\244\375\223?*!\345\364W\265a?\337\375c\016w&x?\3516w\240v;\217?O\350\373\357\336\376\213?\277>\375\305uE\215?\305\371D\354\211V\226?\302^A\307/\321\210?\207\220\350\014\343*\236?\247a\025\215\212\375\224?\237g\255\206\343[\204?\326\034\265O\316\005w?y\002\243\350\201\350\217?\226ThP\354\\i?\032\003\206\370Z\373\234?\022\006\332\026F6\200?"
      }
    }
  }
}
node {
  name: "Const_57"
  op: "Const"
  device: "/device:CPU:0"
  attr {
    key: "_output_shapes"
    value {
      list {
        shape {
          dim {
            size: 39
          }
        }
      }
    }
  }
  attr {
    key: "dtype"
    value {
      type: DT_DOUBLE
    }
  }
  attr {
    key: "value"
    value {
      tensor {
        dtype: DT_DOUBLE
        tensor_shape {
          dim {
            size: 39
          }
        }
        tensor_content: "OR\006\243\305\'\234?\354*\223\245\263Mx?\226\225\271\215\257\252y?Aw\374\344\3104\206?-\3628\377\030\343\201?\317\024\001fX\244\233?#\251\301A\371 \217?qM\243\265\217(u?`8\'\242\023\025\223?\332\234=\325\274s\233?g5\305V\206Fl?\'g5$\236\355\207?Q\177\031\333d\246\205?\375\201\256\004y\rx?\034\024\304\303:\232n?Y\243HDnh\216?^\"\247\024\231\354\233?\256\r\037\022\r\007\242?\243\210\305\020\341\t\242?\263\252\000\257wJ\213?\n\330\320\247\031w\244?M\227m\315\244^\233?\244(8)\265\277\242?\021\356\241v\317\214x?\267\360\2623\302}~?\006u\357\274P\367\212?Q\0254\352\221\233t?\213\300U\"C\016\236?=H\014\205\014\033\241?=X+?\234)\254?Jiv\244k\352\242?\2625\355\244jM\205?\347\274\363\017W\200\210?\212Z\022\331\031e\263?K\211k}x\236\204?\022\213\255\216\346B\221?\240ga\207\326\000a?z\207\2235\242\037\233?-\362\252\206:\315\243?"
      }
    }
  }
}
node {
  name: "Const_58"
  op: "Const"
  device: "/device:CPU:0"
  attr {
    key: "_output_shapes"
    value {
      list {
        shape {
          dim {
            size: 39
          }
        }
      }
    }
  }
  attr {
    key: "dtype"
    value {
      type: DT_DOUBLE
    }
  }
  attr {
    key: "value"
    value {
      tensor {
        dtype: DT_DOUBLE
        tensor_shape {
          dim {
            size: 39
          }
        }
        tensor_content: "\244U\320\r\211\270r?\n\020\230\033B\212y?\324\271E\275J\322t?\217GW2\213B\201?\016\221M-\221\303~?!\014\273j\214=v?\033\243\303\306 \000q?%\233\327F\353Xr?\364s\226\246\363\025\217?\343\266\352\032\2126\205?\216\223S\344\006\023y?V\334F\317\225\310s?x=X\022\204\303~?\010\234i5y\000\201?\200a\220}\031\\\204?3J\3265\000]\212?c9\330\213=[\206?\271%5\227\207\360\246?\226\362\222\230V\215\210?n\213\241n:5{?\353\311\226\255\025R\202?\245{\244\nr\ny?RkE@\244\345z?\0017\370\334H_\205?\255UP`\261\346\216?\204\303\271\273\014By?\016{\344c\221\220\202?\216\220h\254e\\q?\361\206\324\217\271s\202?\273\336\346\306\305A\206?\017c\007S9ij?^K\221\374\356\334\200?%\300\220\242%M\204?\030\210\027\032\n\213|?\312$\342\224\247{\203?\021T\374G\025\324~?\200;WK,Um?d\216\270\317\334\300\203?\264\356\260\202\027\037\214?"
      }
    }
  }
}
node {
  name: "Const_59"
  op: "Const"
  device: "/device:CPU:0"
  attr {
    key: "_output_shapes"
    value {
      list {
        shape {
          dim {
            size: 39
          }
        }
      }
    }
  }
  attr {
    key: "dtype"
    value {
      type: DT_DOUBLE
    }
  }
  attr {
    key: "value"
    value {
      tensor {
        dtype: DT_DOUBLE
        tensor_shape {
          dim {
            size: 39
          }
        }
        tensor_content: "\360\007\302\320n\373\224?\205\241\262\334$\303\261?)\030\033\364\357J\243?X\362\226b\'5\240?VEr\375q\330\245?\367\024t\034R\037\220?\rjo\033\001\261\215?\226?\223\222\243N\221?T\014\365\2572D\203?\177\220\316u\322=t?\24475\361\346[\261?\207\002\370-6\n\226?\237d\356\034\377.\200?\246\327(X)\013\210?(\376\314\025<@\225?;{\025u!$\213?Z\211d\177e>\246?\347#\0348\256?\224?\343\327\365^\'\r\244?C*\253\r\251\002\210?\n\266U\237\027n\244?w\357\014o\341\227\227?\256EF\367OH\244?N\242c\275\014\224z?\252Y\000\232~\330\211?\3466N)\206{\251?\247\225\360\024\007.\226?z\001 *\025\\\221?_87\275\034I\220?;\302\033\354\321\035\251?w\021\004\370e\267v?\333#\003\014\314\311\242?\364()&9(\267?\251Y\013\025\306j\230?!\335\302\032\354\367\231?\006\r\327\234\247\210\252?D\336\210G\255\204\227?C6\276\307\307\001\247?\301\242>r\274\351\263?"
      }
    }
  }
}
node {
  name: "Const_60"
  op: "Const"
  device: "/device:CPU:0"
  attr {
    key: "_output_shapes"
    value {
      list {
        shape {
          dim {
            size: 39
          }
        }
      }
    }
  }
  attr {
    key: "dtype"
    value {
      type: DT_DOUBLE
    }
  }
  attr {
    key: "value"
    value {
      tensor {
        dtype: DT_DOUBLE
        tensor_shape {
          dim {
            size: 39
          }
        }
        tensor_content: "\200)h\321\364\016n?\360\035\355Q|0\207?A\261\267\366t\225\201?G\010\241\265i\237y?{2GA\377+u?\r\0149\024\273\247\222?\204X2(#\353\200?x\357\355s\337O\220?B(M4 \342y?6\213\303\331b\376\204?M\343\363\2250\364w?\007\371:Alg|?`\212F\355!\025w?\000B\274\254\244\030\214?\022o\246I.^\224?\270Z1\304%!\253?\346\332\302\265\310by?\235\304\377s\304\305\226?\\\335\024\214\366\027r?\255\250s\203\215\316\201?\016,\211?s\216|?X`\205r\030\370\200?L1\\\024q\271\200?\022\033\337|\371\376\205?\352\027E\260\274\377\204?\340\n4\037\032\\i?\376k\370\376\030\377\221?\r\231\027G<\274\204?v\267\300b\206\212\210?\3031\272R\223\345|?\263 @\377\333\363\200?:A\267\256\217\344\177?A\266\260J\302\263\200?y\302\020uM\347\205?\245\302\366\'iYv?\262\252\314\216j<u?B|\272\244\037\004|?<n\223h\345Vx?^\302\004\215\355y\213?"
      }
    }
  }
}
node {
  name: "Const_61"
  op: "Const"
  device: "/device:CPU:0"
  attr {
    key: "_output_shapes"
    value {
      list {
        shape {
          dim {
            size: 39
          }
        }
      }
    }
  }
  attr {
    key: "dtype"
    value {
      type: DT_DOUBLE
    }
  }
  attr {
    key: "value"
    value {
      tensor {
        dtype: DT_DOUBLE
        tensor_shape {
          dim {
            size: 39
          }
        }
        tensor_content: "P\324\016\227\317\037p?\020v(wL\300\245?\004B\216\373LS\265?\212a\325\376\327\222\207?q-\334\326ux\215?u\215\252\331J\347z?\363\"\246\207!\310|?\361\033\275\352\373\251\225?k&eD\203\216\200?\3565\215\207\2466\200?\272r|\312l\207\242?\243\224\213\004\212\352\225?\n\327\262\013%Pz?\370?\'\350\352\272\220?-\177\274\265\207y\214?\032\037S\324M\270o?\315q\"b\350\345\210?h>2`\230j\203?g\222\326T\240\254t?r\004\001\326(&\227?VA]JR^\222?y\374\207\303\211\253\220?\014\264^\262Cd\201?Z\\\231\223\202l\216?1\\\276\'\254\352\202?A\352OA\343\232q?\303\340\241\201\'\357m?\301\210\372\034f\250\204?X\312\3472\322[\200?\370\271\232\211\261\274\211?\203\327\335D\254\204m?gp*|l\211\227?\326&\313\275 \356\207?L\275K\215\371+\201?4\033Sz7%\227?\025\016\'\343$\265\220?;\320\226\206\241\362\220?\014*\265\272\013l\224?tw\374=\356G\215?"
      }
    }
  }
}
node {
  name: "Const_62"
  op: "Const"
  device: "/device:CPU:0"
  attr {
    key: "_output_shapes"
    value {
      list {
        shape {
          dim {
            size: 39
          }
        }
      }
    }
  }
  attr {
    key: "dtype"
    value {
      type: DT_DOUBLE
    }
  }
  attr {
    key: "value"
    value {
      tensor {
        dtype: DT_DOUBLE
        tensor_shape {
          dim {
            size: 39
          }
        }
        tensor_content: "\375<\377\264\221\306\220?\035\205\217\343\362\227\254?\344q=Tf\025\233?\354+\370^Z\013\231?K:B\030\345\245\247?\277G\352g\246\326\245?\215\316Z\207\213\246\256?\220\000\271\275\375\331\240?B\324\200\005\326R\236?r\374v\003ez\240?W\364\202\312\351?|?^\322\030rj\254\252?Y\335\263\375)\306\251?p6\246keJ\272?\321@e\021\372\300\265?\355\300\371\375SCs?\202\327\215\302\333\341s?\354\014Wa\005\372\202?J\3656\016\026\207\214?;\020TA\375\265\256?0.j\341\'+\235?\014=\221\354\302X\232?B\330\227\250/\377\244?3\032\004{\002\375\214?\364\302\326\214\3524\202?\215K}\337\316\307\201?\327\251\227(S\227|?\\\010\027|A\272\243?\001\265\270\214\314q\223?\031\025w\243\020\017\224?\031M\204\323\375\220\225?\320<\260\\::q?\267\312\204\365\305\202X?\032\212\010\223\211\014\201?\304n\217\215\257\014\215?c\327\255<IP\220?r\004KAH\262\204?T\367\t\204\026\345p?\267Tt\355;\274\200?"
      }
    }
  }
}
node {
  name: "Const_63"
  op: "Const"
  device: "/device:CPU:0"
  attr {
    key: "_output_shapes"
    value {
      list {
        shape {
          dim {
            size: 39
          }
        }
      }
    }
  }
  attr {
    key: "dtype"
    value {
      type: DT_DOUBLE
    }
  }
  attr {
    key: "value"
    value {
      tensor {
        dtype: DT_DOUBLE
        tensor_shape {
          dim {
            size: 39
          }
        }
        tensor_content: "L\0171\234\351\004m?\212:\003\267\373$\222?B-\241\341\0219\243?\352\350l\235\355\031~?\341a\243\003\2566z?A\313\350_\227~\177?\276k&\243\240\322x?\272\377\373>\210\364\225?\0071\246\3515\273w?\315\365Y(\030\t\207?yxY\0007\031\247?\242W3\271\201\003\215?,\213*\n\362\216\211?t\242lJ\270\235\203?\245\010\022\233\030x\204?\213\002\005\221q\273j?\020\353U\314\3563y?\241@O\303+\265q?c\230\210\221\265\332`?\333q9r\223\317\207?\324X\252x?<\201?\017\353\217\241)\017\227?\206\247)D\002\346\225?5b\025\361\252\366\222?\332\025w?W\220t?\252\310\r\354_>w?\262\277o\302\3150\201?B\375r\2500u\205?\245\2036.\374\355\217?\347\243\255B\213\264\222?(\331\201\347\264\240w?\251\027J\033B\231i?+\313Y(\277\023o?\351\334\257.\215xg?x\022\321\221\227\235\201?%Wo\n*\251\221?\355\351\2707h|d?\'\247b\302\013K\177?\320\224O\000\020fs?"
      }
    }
  }
}
node {
  name: "Const_64"
  op: "Const"
  device: "/device:CPU:0"
  attr {
    key: "_output_shapes"
    value {
      list {
        shape {
          dim {
            size: 39
          }
        }
      }
    }
  }
  attr {
    key: "dtype"
    value {
      type: DT_DOUBLE
    }
  }
  attr {
    key: "value"
    value {
      tensor {
        dtype: DT_DOUBLE
        tensor_shape {
          dim {
            size: 39
          }
        }
        tensor_content: "M\334\345\276\306{\203?e-o\344\355\340\233?h\323\001\336r\r\234?\323\265\220\010\232\327\216?\320V!\277\316\210\224?eYy\215\020!\213?/\370\212\216\031\003\224?\023\334\34436\206\230?\232\311}PH4\204?\244\030\342\260\216\377\204?\336\375\250\255\036\242\233?\273Z\231+\300^\232?\334~\327\223M\252\220?)\000\353;\263v\233?`by\215O\364\226?9\004\257\216^j\217?\301y\202\267\345\005\230?\375\316L\nu9\224?\262\007H\275\243\034\220?\201UE\013\017\214\225?\023\033\215,\351\213\223?OK\253?\337\035\221?\326aW~\370\200\224?\036w&\345@O\213?Ew^\310\030.\200?\302\346\035eb\351\217?2\275\2143\306\333\214?S\022\360\276{b\222?\377\\.\262~\267\225?\226\006PL`\251\221?\217P\221J_[\210?\336=\216\250\263O\212?WU\313\330-\337\230?8\231\031}\261\027\224?\353\257\216;e5\203?\004XY\t\333\362\225?j\271x\333c\360\200?\014\225+\000A\010\216?}\003O\207\230\363\226?"
      }
    }
  }
}
node {
  name: "Const_65"
  op: "Const"
  device: "/device:CPU:0"
  attr {
    key: "_output_shapes"
    value {
      list {
        shape {
          dim {
            size: 39
          }
        }
      }
    }
  }
  attr {
    key: "dtype"
    value {
      type: DT_DOUBLE
    }
  }
  attr {
    key: "value"
    value {
      tensor {
        dtype: DT_DOUBLE
        tensor_shape {
          dim {
            size: 39
          }
        }
        tensor_content: "\000\000\000\000\000\000D@\000\000\000\000\000\000H@\000\000\000\000\000\000H@I\222$I\222$A@\000\000\000\000\000\000H@I\222$I\222$A@\000\000\000\000\000\000N@\000\000\000\000\000\000D@I\222$I\222$A@\000\000\000\000\000\000H@\000\000\000\000\000\000D@\000\000\000\000\000\000D@\000\000\000\000\000\000D@\000\000\000\000\000\000D@\000\000\000\000\000\000H@\000\000\000\000\000\000>@\000\000\000\000\000\000H@I\222$I\222$A@\000\000\000\000\000\000>@I\222$I\222$A@\000\000\000\000\000\000>@\000\000\000\000\000\000>@\000\000\000\000\000\000H@\000\000\000\000\000\000H@I\222$I\222$A@\000\000\000\000\000\000D@\000\000\000\000\000\000D@I\222$I\222$A@I\222$I\222$A@\000\000\000\000\000\000>@\000\000\000\000\000\000D@\000\000\000\000\000\000H@\000\000\000\000\000\000H@\000\000\000\000\000\000D@I\222$I\222$A@\000\000\000\000\000\000>@I\222$I\222$A@\000\000\000\000\000\000H@\000\000\000\000\000\000H@"
      }
    }
  }
}
node {
  name: "Const_66"
  op: "Const"
  device: "/device:CPU:0"
  attr {
    key: "_output_shapes"
    value {
      list {
        shape {
          dim {
            size: 39
          }
        }
      }
    }
  }
  attr {
    key: "dtype"
    value {
      type: DT_DOUBLE
    }
  }
  attr {
    key: "value"
    value {
      tensor {
        dtype: DT_DOUBLE
        tensor_shape {
          dim {
            size: 39
          }
        }
        tensor_content: "\016\"\n\332Q\361L?\036K2\364\323\033\\?\256\026#\300\315fY?\252\226\033\330\032\306W?W9@\326\321\026[?\207\301p\033\376\rS?j_\243\347\351lR?\253K~\373\216\262W?b/\"\344\214\216O?\203\223\275\343\250\343I?\202:%\026\340_d?\'\302\203\006\031\323Y?\221\323\001\024~\013O?\252v\211\233/\222W?\302Q\013\220\305\333[?\277\335\357\276w\265^?\316}RI\371/[?\363\353\232w\266va?\245\'\262\007Z\203_?\266Hr\206\316\234V?A;8\261\202cT?XZ\361\356C\224R?/\334\271\242\227\032R?z\223\217\363\036`U?\373\352W&\\\365^?\032W\035\022\254\032^?\211>\022\333y\205`?\200\023\214r\233?T?\252g\273\031\t\001R?\252K9\362R\341V?0\355\020\372\'\177G?\'\270P\\\t\032U?\361(\350c\351\\b?\211\227=EgzU?\364\317\210,\253\022R?\022CQT\216\nZ?GV\035\nV\342I?\365\n\350\312$9S?\323U\372\331\240~W?"
      }
    }
  }
}
node {
  name: "Const_67"
  op: "Const"
  device: "/device:CPU:0"
  attr {
    key: "_output_shapes"
    value {
      list {
        shape {
          dim {
            size: 39
          }
        }
      }
    }
  }
  attr {
    key: "dtype"
    value {
      type: DT_DOUBLE
    }
  }
  attr {
    key: "value"
    value {
      tensor {
        dtype: DT_DOUBLE
        tensor_shape {
          dim {
            size: 39
          }
        }
        tensor_content: "\232\223@\\\2509\321?\236\234\234\234\234\234\314?\234\032\332\271\251\241\315?\235\33458\323\311\315?\263\017f\027\230\334\311?3\276\006\357\354\231\322?uCA\363\241[\313?\312\320%\027WT\320?\214\220\354\277\230{\313?\237\330\211\235\330\211\315?\250\246\330L\312S\323?\252\350Y\351|\342\316?\"pc\031\224\n\323?\255-^\'\203\355\314?\277\241n4p\250\313?\267\027F\t\'9\315?\342\034\340\255\212\241\315?\246\006y\354b{\311?\330\315\207\372V\214\314?F\027]t\321E\312?8\331d\223M6\311?VYx\327\245\r\315?YVE\023\2160\315?\235\'\241\361y\022\312?\\\312\245\\\312\245\314?\337\335\335\335\335\335\315?\322A\035\324A\035\324?\201\346%\236\203.\317?\367lhY\000\213\312?\245q!\260\231\255\312?\223$I\222$I\320?\360\2212\031\020|\315?\002\223N\315\203\334\325?\324\357\271%N\375\316?\357b\255\":\245\312?;^5@\201\007\315?\327\316\367S\343\245\313?FG\r\304l\315\314?\272\273\273\273\273\273\321?"
      }
    }
  }
}
node {
  name: "Const_68"
  op: "Const"
  device: "/device:CPU:0"
  attr {
    key: "_output_shapes"
    value {
      list {
        shape {
          dim {
            size: 39
          }
        }
      }
    }
  }
  attr {
    key: "dtype"
    value {
      type: DT_DOUBLE
    }
  }
  attr {
    key: "value"
    value {
      tensor {
        dtype: DT_DOUBLE
        tensor_shape {
          dim {
            size: 39
          }
        }
        tensor_content: "3K\002\324\324\256\277?\022\002\321,\215\216\256?Cj\004H\306\352\255?\362=\022\336\tf\266?\200\376DF\357\257\265?\205x\341H[\013\300?\335+\307\305ZC\276?\005Ice\322j\270?Dl\304\273\230x\274?\243\212\027\246\"\323\275?\020\013\340\210\261\316\261?7\356\3728\"w\260?\3179y\016\206\300\311?\"\374\322\376\275\370\260?9\275\275\266)\026\263?]8j\273\227\344\251?\300\323\350\207\333%\255?\320\201\014mX\'\252?\241 \327\2373}\253?\017\272\021~\026\353\264?k\323\371\231\016\027\270?\216\3463\211&\273\267?\332\244\320\312w^\267?\0071p\037\351\200\267?^)\263\337h\371\301?Xkd\331\026\344\250?\270\253\316w\225\221\251?\302\312\367!J\023\271?W\242~\210\220\235\274?\240\227\240\014\226\272\266?\367\321\240R\236\206\303?\336:\276;\3657\273?!\352\270;(U\270?\305\355:!{\211\272?\320\225\317\222\353p\272?\206\231Y\035O\324\264?K\002M\t\350\337\305?\230*}:*G\270?Vw\262a\354i\267?"
      }
    }
  }
}
node {
  name: "Const_69"
  op: "Const"
  device: "/device:CPU:0"
  attr {
    key: "_output_shapes"
    value {
      list {
        shape {
          dim {
            size: 39
          }
        }
      }
    }
  }
  attr {
    key: "dtype"
    value {
      type: DT_DOUBLE
    }
  }
  attr {
    key: "value"
    value {
      tensor {
        dtype: DT_DOUBLE
        tensor_shape {
          dim {
            size: 39
          }
        }
